const unsigned char rms_mpu_model_int8_tflite[] = {
  0x1c, 0x00, 0x00, 0x00, 0x54, 0x46, 0x4c, 0x33, 0x14, 0x00, 0x20, 0x00, 
  0x1c, 0x00, 0x18, 0x00, 0x14, 0x00, 0x10, 0x00, 0x0c, 0x00, 0x00, 0x00, 
  0x08, 0x00, 0x04, 0x00, 0x14, 0x00, 0x00, 0x00, 0x1c, 0x00, 0x00, 0x00, 
  0x94, 0x00, 0x00, 0x00, 0xec, 0x00, 0x00, 0x00, 0x20, 0x06, 0x00, 0x00, 
  0x30, 0x06, 0x00, 0x00, 0x90, 0x10, 0x00, 0x00, 0x03, 0x00, 0x00, 0x00, 
  0x01, 0x00, 0x00, 0x00, 0x10, 0x00, 0x00, 0x00, 0x00, 0x00, 0x0a, 0x00, 
  0x10, 0x00, 0x0c, 0x00, 0x08, 0x00, 0x04, 0x00, 0x0a, 0x00, 0x00, 0x00, 
  0x0c, 0x00, 0x00, 0x00, 0x1c, 0x00, 0x00, 0x00, 0x3c, 0x00, 0x00, 0x00, 
  0x0f, 0x00, 0x00, 0x00, 0x73, 0x65, 0x72, 0x76, 0x69, 0x6e, 0x67, 0x5f, 
  0x64, 0x65, 0x66, 0x61, 0x75, 0x6c, 0x74, 0x00, 0x01, 0x00, 0x00, 0x00, 
  0x04, 0x00, 0x00, 0x00, 0x94, 0xff, 0xff, 0xff, 0x09, 0x00, 0x00, 0x00, 
  0x04, 0x00, 0x00, 0x00, 0x08, 0x00, 0x00, 0x00, 0x6f, 0x75, 0x74, 0x70, 
  0x75, 0x74, 0x5f, 0x30, 0x00, 0x00, 0x00, 0x00, 0x01, 0x00, 0x00, 0x00, 
  0x04, 0x00, 0x00, 0x00, 0x72, 0xfa, 0xff, 0xff, 0x04, 0x00, 0x00, 0x00, 
  0x0b, 0x00, 0x00, 0x00, 0x69, 0x6e, 0x70, 0x75, 0x74, 0x5f, 0x6c, 0x61, 
  0x79, 0x65, 0x72, 0x00, 0x02, 0x00, 0x00, 0x00, 0x34, 0x00, 0x00, 0x00, 
  0x04, 0x00, 0x00, 0x00, 0xdc, 0xff, 0xff, 0xff, 0x0c, 0x00, 0x00, 0x00, 
  0x04, 0x00, 0x00, 0x00, 0x13, 0x00, 0x00, 0x00, 0x43, 0x4f, 0x4e, 0x56, 
  0x45, 0x52, 0x53, 0x49, 0x4f, 0x4e, 0x5f, 0x4d, 0x45, 0x54, 0x41, 0x44, 
  0x41, 0x54, 0x41, 0x00, 0x08, 0x00, 0x0c, 0x00, 0x08, 0x00, 0x04, 0x00, 
  0x08, 0x00, 0x00, 0x00, 0x0b, 0x00, 0x00, 0x00, 0x04, 0x00, 0x00, 0x00, 
  0x13, 0x00, 0x00, 0x00, 0x6d, 0x69, 0x6e, 0x5f, 0x72, 0x75, 0x6e, 0x74, 
  0x69, 0x6d, 0x65, 0x5f, 0x76, 0x65, 0x72, 0x73, 0x69, 0x6f, 0x6e, 0x00, 
  0x0d, 0x00, 0x00, 0x00, 0x30, 0x05, 0x00, 0x00, 0x28, 0x05, 0x00, 0x00, 
  0x14, 0x05, 0x00, 0x00, 0xec, 0x04, 0x00, 0x00, 0x9c, 0x04, 0x00, 0x00, 
  0x8c, 0x02, 0x00, 0x00, 0xfc, 0x01, 0x00, 0x00, 0xac, 0x00, 0x00, 0x00, 
  0xa4, 0x00, 0x00, 0x00, 0x9c, 0x00, 0x00, 0x00, 0x94, 0x00, 0x00, 0x00, 
  0x74, 0x00, 0x00, 0x00, 0x04, 0x00, 0x00, 0x00, 0x1e, 0xfb, 0xff, 0xff, 
  0x04, 0x00, 0x00, 0x00, 0x60, 0x00, 0x00, 0x00, 0x0c, 0x00, 0x00, 0x00, 
  0x08, 0x00, 0x0e, 0x00, 0x08, 0x00, 0x04, 0x00, 0x08, 0x00, 0x00, 0x00, 
  0x10, 0x00, 0x00, 0x00, 0x28, 0x00, 0x00, 0x00, 0x00, 0x00, 0x06, 0x00, 
  0x08, 0x00, 0x04, 0x00, 0x06, 0x00, 0x00, 0x00, 0x04, 0x00, 0x00, 0x00, 
  0x01, 0x00, 0x00, 0x00, 0xeb, 0x03, 0x00, 0x00, 0x0c, 0x00, 0x18, 0x00, 
  0x14, 0x00, 0x10, 0x00, 0x0c, 0x00, 0x04, 0x00, 0x0c, 0x00, 0x00, 0x00, 
  0x63, 0x4e, 0xeb, 0xb7, 0x5a, 0x23, 0x4d, 0x43, 0x02, 0x00, 0x00, 0x00, 
  0x02, 0x00, 0x00, 0x00, 0x04, 0x00, 0x00, 0x00, 0x06, 0x00, 0x00, 0x00, 
  0x32, 0x2e, 0x32, 0x30, 0x2e, 0x30, 0x00, 0x00, 0x8a, 0xfb, 0xff, 0xff, 
  0x04, 0x00, 0x00, 0x00, 0x10, 0x00, 0x00, 0x00, 0x31, 0x2e, 0x31, 0x34, 
  0x2e, 0x30, 0x00, 0x00, 0x00, 0x00, 0x00, 0x00, 0x00, 0x00, 0x00, 0x00, 
  0x14, 0xfb, 0xff, 0xff, 0x18, 0xfb, 0xff, 0xff, 0x1c, 0xfb, 0xff, 0xff, 
  0xb2, 0xfb, 0xff, 0xff, 0x04, 0x00, 0x00, 0x00, 0x40, 0x01, 0x00, 0x00, 
  0x52, 0x54, 0x1e, 0x7e, 0x7f, 0xf1, 0xd9, 0x71, 0x4f, 0x94, 0x5b, 0x81, 
  0x34, 0x4a, 0x16, 0x9e, 0x1d, 0x8c, 0xb3, 0xa9, 0x5e, 0x1d, 0x2a, 0x20, 
  0x7f, 0x1c, 0x1c, 0x9f, 0x4e, 0x07, 0x77, 0xc4, 0x20, 0xad, 0x55, 0x9d, 
  0x35, 0xef, 0x25, 0x81, 0x62, 0x05, 0x17, 0x42, 0x4a, 0x3d, 0xbd, 0x90, 
  0x4a, 0x81, 0x18, 0xbd, 0x35, 0x2d, 0xcb, 0x1f, 0xff, 0x40, 0x0f, 0x81, 
  0x15, 0x04, 0x15, 0xe9, 0x4d, 0x7f, 0x24, 0xf3, 0xf3, 0x14, 0x06, 0x3d, 
  0x7f, 0x9f, 0xbf, 0x56, 0x10, 0x60, 0x9f, 0xf1, 0xb3, 0xec, 0x34, 0xd0, 
  0x36, 0xd0, 0x27, 0xf4, 0xcd, 0x7f, 0x7f, 0x53, 0xcf, 0x53, 0x1c, 0xcd, 
  0xaa, 0xac, 0xec, 0x23, 0xd7, 0x16, 0x17, 0x4f, 0x1b, 0xb5, 0xf2, 0x0a, 
  0x7f, 0xe7, 0x81, 0x45, 0x90, 0xc4, 0xca, 0x9e, 0xe9, 0x5d, 0x69, 0xd2, 
  0xed, 0xb5, 0x29, 0x17, 0x1a, 0xba, 0xe1, 0xe0, 0x0c, 0x7f, 0xf3, 0xe0, 
  0x85, 0xe5, 0x5d, 0x7f, 0x35, 0x10, 0xe6, 0x33, 0x39, 0xb9, 0xed, 0x24, 
  0x30, 0xff, 0xd6, 0xb6, 0x50, 0x81, 0x7f, 0xd3, 0x8b, 0xb8, 0xeb, 0x3e, 
  0x17, 0xf7, 0xbb, 0xa7, 0xb8, 0x5e, 0x4e, 0x4c, 0xaa, 0x22, 0x18, 0x85, 
  0x81, 0xe8, 0x9d, 0x24, 0x76, 0x7f, 0xb9, 0xf9, 0x6e, 0xf1, 0xf8, 0xd4, 
  0x5f, 0x54, 0x40, 0xd6, 0x0a, 0xd1, 0x2a, 0x1e, 0xc1, 0x7f, 0xd0, 0xe8, 
  0x12, 0xd5, 0x0a, 0x7f, 0xc4, 0xc0, 0x09, 0x78, 0x54, 0x81, 0xd3, 0x1b, 
  0x2f, 0x54, 0x55, 0x13, 0x0f, 0x2f, 0xca, 0x1b, 0x05, 0x98, 0x0d, 0xc3, 
  0xff, 0x02, 0xf7, 0x7f, 0x05, 0x63, 0x55, 0x90, 0x96, 0x8e, 0x7e, 0x28, 
  0x12, 0x81, 0x8c, 0x27, 0xa0, 0x0e, 0x39, 0xd7, 0xd8, 0xe3, 0x01, 0x81, 
  0x17, 0x65, 0x3a, 0xdc, 0xc1, 0x3c, 0x30, 0x7f, 0xf4, 0x47, 0xb7, 0x6e, 
  0x81, 0xf5, 0xd8, 0x73, 0x59, 0xaf, 0x7c, 0x0d, 0xee, 0x62, 0x08, 0x1c, 
  0xb6, 0xe1, 0xed, 0x16, 0x35, 0x7f, 0xfa, 0xce, 0x4c, 0x72, 0x4b, 0xc6, 
  0xcf, 0x81, 0xb2, 0xd4, 0x7f, 0xc1, 0xde, 0x1b, 0x6f, 0xd9, 0x7c, 0x63, 
  0xbd, 0xaf, 0xc2, 0x69, 0x81, 0x6d, 0xf9, 0x93, 0x3f, 0xab, 0x5c, 0x40, 
  0x56, 0xf8, 0x81, 0x05, 0xf6, 0xe3, 0x07, 0xbf, 0xc2, 0x0b, 0xc6, 0x7f, 
  0xfb, 0x0a, 0x26, 0x27, 0x6a, 0x30, 0x97, 0x9e, 0xfe, 0xfc, 0xff, 0xff, 
  0x04, 0x00, 0x00, 0x00, 0x80, 0x00, 0x00, 0x00, 0x28, 0xfd, 0xff, 0xff, 
  0x94, 0xfd, 0xff, 0xff, 0x24, 0xff, 0xff, 0xff, 0x6d, 0xfb, 0xff, 0xff, 
  0x20, 0x02, 0x00, 0x00, 0xf1, 0x05, 0x00, 0x00, 0x7c, 0xfd, 0xff, 0xff, 
  0x93, 0xfc, 0xff, 0xff, 0x55, 0xf6, 0xff, 0xff, 0x97, 0xf6, 0xff, 0xff, 
  0x77, 0xf5, 0xff, 0xff, 0x36, 0x03, 0x00, 0x00, 0xb4, 0x03, 0x00, 0x00, 
  0xf5, 0xfe, 0xff, 0xff, 0xfc, 0xfd, 0xff, 0xff, 0x4e, 0xfd, 0xff, 0xff, 
  0x3a, 0x06, 0x00, 0x00, 0x18, 0xfc, 0xff, 0xff, 0xee, 0xf8, 0xff, 0xff, 
  0x16, 0x09, 0x00, 0x00, 0x47, 0xfc, 0xff, 0xff, 0xa3, 0xff, 0xff, 0xff, 
  0xef, 0x0d, 0x00, 0x00, 0xd3, 0x06, 0x00, 0x00, 0x5f, 0x07, 0x00, 0x00, 
  0xe5, 0x01, 0x00, 0x00, 0x60, 0xfc, 0xff, 0xff, 0x24, 0x05, 0x00, 0x00, 
  0xda, 0xfe, 0xff, 0xff, 0xa6, 0xfd, 0xff, 0xff, 0x42, 0xf8, 0xff, 0xff, 
  0x84, 0xfc, 0xff, 0xff, 0x8a, 0xfd, 0xff, 0xff, 0x04, 0x00, 0x00, 0x00, 
  0x00, 0x02, 0x00, 0x00, 0x60, 0xbd, 0xfd, 0xd0, 0x2d, 0xe1, 0xc9, 0xc4, 
  0xef, 0x10, 0x06, 0xc9, 0x5d, 0x40, 0xd2, 0xb6, 0xd3, 0x81, 0x25, 0xbd, 
  0xdb, 0x83, 0xb5, 0x9d, 0x25, 0x86, 0xfd, 0x94, 0xd1, 0x0e, 0xd2, 0xd6, 
  0xf6, 0x3f, 0x2b, 0x1c, 0xce, 0xc7, 0xf4, 0x36, 0x5b, 0xf7, 0x02, 0xe8, 
  0x21, 0xe7, 0xe0, 0xf6, 0xcc, 0xba, 0x20, 0x59, 0x49, 0x33, 0x81, 0xbc, 
  0x3d, 0xbd, 0xda, 0x14, 0xe9, 0x3e, 0x72, 0x43, 0x60, 0xda, 0x1c, 0xd5, 
  0x51, 0x38, 0xaf, 0xc0, 0x03, 0x54, 0xfb, 0xc2, 0x42, 0xa6, 0x03, 0x81, 
  0x6d, 0xea, 0x04, 0x97, 0x04, 0x1e, 0xf5, 0x48, 0x45, 0xc3, 0x85, 0xaa, 
  0x38, 0xa1, 0x12, 0x0e, 0xf8, 0x4c, 0xe5, 0x30, 0xf0, 0x7f, 0xe0, 0x24, 
  0x1f, 0x00, 0xbe, 0x03, 0x2e, 0xb8, 0x32, 0xdd, 0x21, 0x27, 0xb2, 0xfb, 
  0xc9, 0xe5, 0x7f, 0x61, 0x88, 0x9e, 0x19, 0x2b, 0x45, 0x31, 0x1d, 0x33, 
  0x81, 0x39, 0xcb, 0xa5, 0x28, 0x1d, 0x59, 0xcf, 0x29, 0xc0, 0xbd, 0x9a, 
  0x0d, 0xbf, 0x3d, 0xc8, 0x93, 0xb6, 0xe3, 0x00, 0xd0, 0x07, 0xac, 0x6b, 
  0xd0, 0x1b, 0x41, 0xbf, 0x45, 0x08, 0x18, 0x5d, 0x4e, 0x20, 0x5d, 0xa2, 
  0x57, 0xa5, 0x2a, 0xb0, 0x4c, 0x5c, 0x7b, 0xe1, 0xf0, 0x81, 0xf0, 0x4f, 
  0xdf, 0x73, 0xa6, 0x2b, 0xe1, 0xde, 0x08, 0x2f, 0xc3, 0xce, 0xe9, 0xbb, 
  0xf7, 0xbd, 0x32, 0xcf, 0x1b, 0x88, 0x09, 0xf5, 0x35, 0x1a, 0xfe, 0x0a, 
  0x10, 0xfb, 0xb7, 0x0b, 0x11, 0xcc, 0xff, 0x42, 0xb6, 0xb9, 0x08, 0x7f, 
  0x50, 0x0d, 0xc9, 0xc3, 0x48, 0x1c, 0xdd, 0x19, 0xf9, 0x4e, 0x20, 0xef, 
  0x3d, 0x21, 0xc6, 0x0f, 0x47, 0x0a, 0x17, 0xfc, 0x60, 0x71, 0xea, 0x79, 
  0x58, 0xcf, 0x81, 0xc7, 0xd7, 0x61, 0x17, 0x25, 0x64, 0xec, 0x65, 0xeb, 
  0xee, 0x29, 0x72, 0xac, 0x0c, 0xef, 0xe2, 0x16, 0xdb, 0x1b, 0xb0, 0xc8, 
  0x6b, 0x46, 0xef, 0x5c, 0x0a, 0x60, 0xa6, 0x21, 0x8d, 0x34, 0x67, 0xd7, 
  0xfc, 0xe5, 0xed, 0x03, 0x0c, 0xda, 0xd5, 0x58, 0x13, 0x2e, 0x97, 0x4f, 
  0x1e, 0x9e, 0x0f, 0x7f, 0xce, 0xfd, 0x27, 0x09, 0xb2, 0x81, 0xd0, 0xe8, 
  0xef, 0xfb, 0xe6, 0xa5, 0xee, 0x15, 0xa7, 0xe8, 0x00, 0xb2, 0x23, 0x34, 
  0x21, 0xd6, 0xf1, 0x1d, 0xc7, 0xca, 0x11, 0x32, 0xca, 0xfd, 0xc9, 0xb0, 
  0x51, 0x32, 0xb6, 0x2e, 0xc3, 0x07, 0xd8, 0x6c, 0xf2, 0xe5, 0x6a, 0x25, 
  0xfd, 0xda, 0xa9, 0xfd, 0xe3, 0xb6, 0x22, 0xd9, 0x46, 0x63, 0xf3, 0xf0, 
  0x5c, 0xd0, 0x7f, 0x2a, 0xbf, 0xe9, 0x3a, 0xce, 0x7a, 0x16, 0x23, 0x10, 
  0xba, 0x45, 0x0d, 0x06, 0x37, 0x93, 0xdf, 0x58, 0x96, 0x25, 0xf7, 0x6f, 
  0x0a, 0x75, 0xd3, 0x6b, 0x87, 0x2b, 0x74, 0x0f, 0x3b, 0x36, 0x81, 0xf7, 
  0xb2, 0xc0, 0x9c, 0x1c, 0x10, 0xc9, 0xde, 0x0e, 0xe7, 0x07, 0xa8, 0xc7, 
  0x0a, 0xe5, 0xfe, 0xb7, 0x16, 0x81, 0x2c, 0x2e, 0xc9, 0xc2, 0xf1, 0xf9, 
  0x2d, 0xb4, 0x02, 0xf4, 0xcc, 0xa9, 0x3f, 0x39, 0x7a, 0xf4, 0xfe, 0xc9, 
  0xdc, 0x3f, 0x40, 0x2d, 0x9b, 0x0a, 0xfc, 0xac, 0xfd, 0xac, 0xf9, 0x0c, 
  0x38, 0xbd, 0x39, 0xc8, 0xc3, 0x13, 0x9f, 0x3a, 0x7f, 0x32, 0x46, 0x65, 
  0xc1, 0xe0, 0xc1, 0x14, 0x4d, 0xf7, 0x6e, 0x37, 0x49, 0x23, 0xb6, 0x29, 
  0x35, 0xc6, 0xd8, 0xe6, 0xd6, 0xb1, 0xf0, 0x40, 0x40, 0x53, 0xef, 0xab, 
  0x1e, 0x45, 0xc9, 0x72, 0xdf, 0x7f, 0xa2, 0x19, 0x30, 0x50, 0x0f, 0x68, 
  0xb4, 0x24, 0xbb, 0xc4, 0x35, 0x42, 0x55, 0xd7, 0x2b, 0x54, 0xe3, 0x30, 
  0x3a, 0x00, 0x4e, 0xe2, 0x31, 0xe6, 0xf2, 0xdf, 0x61, 0x38, 0xae, 0xdc, 
  0x52, 0xbf, 0xda, 0xe4, 0x41, 0x99, 0x7f, 0x29, 0x34, 0xfa, 0xbc, 0x17, 
  0x96, 0xff, 0xff, 0xff, 0x04, 0x00, 0x00, 0x00, 0x40, 0x00, 0x00, 0x00, 
  0xf0, 0xf9, 0xff, 0xff, 0x66, 0x01, 0x00, 0x00, 0xb0, 0xff, 0xff, 0xff, 
  0x16, 0x04, 0x00, 0x00, 0x8a, 0xf7, 0xff, 0xff, 0xd3, 0xf4, 0xff, 0xff, 
  0x6c, 0x01, 0x00, 0x00, 0xdc, 0x05, 0x00, 0x00, 0x1c, 0xfe, 0xff, 0xff, 
  0xb8, 0xfb, 0xff, 0xff, 0x75, 0x01, 0x00, 0x00, 0x74, 0x03, 0x00, 0x00, 
  0x86, 0xfc, 0xff, 0xff, 0x0d, 0x08, 0x00, 0x00, 0xad, 0x04, 0x00, 0x00, 
  0xe3, 0x0a, 0x00, 0x00, 0xe2, 0xff, 0xff, 0xff, 0x04, 0x00, 0x00, 0x00, 
  0x10, 0x00, 0x00, 0x00, 0x81, 0x76, 0x9d, 0x93, 0xca, 0x4d, 0x0e, 0x24, 
  0xad, 0x8b, 0x21, 0xc3, 0x8b, 0xc5, 0x4c, 0x28, 0x00, 0x00, 0x06, 0x00, 
  0x08, 0x00, 0x04, 0x00, 0x06, 0x00, 0x00, 0x00, 0x04, 0x00, 0x00, 0x00, 
  0x04, 0x00, 0x00, 0x00, 0xb7, 0x03, 0x00, 0x00, 0x84, 0xff, 0xff, 0xff, 
  0x88, 0xff, 0xff, 0xff, 0x0f, 0x00, 0x00, 0x00, 0x4d, 0x4c, 0x49, 0x52, 
  0x20, 0x43, 0x6f, 0x6e, 0x76, 0x65, 0x72, 0x74, 0x65, 0x64, 0x2e, 0x00, 
  0x01, 0x00, 0x00, 0x00, 0x14, 0x00, 0x00, 0x00, 0x00, 0x00, 0x0e, 0x00, 
  0x18, 0x00, 0x14, 0x00, 0x10, 0x00, 0x0c, 0x00, 0x08, 0x00, 0x04, 0x00, 
  0x0e, 0x00, 0x00, 0x00, 0x14, 0x00, 0x00, 0x00, 0x1c, 0x00, 0x00, 0x00, 
  0xdc, 0x00, 0x00, 0x00, 0xe0, 0x00, 0x00, 0x00, 0xe4, 0x00, 0x00, 0x00, 
  0x04, 0x00, 0x00, 0x00, 0x6d, 0x61, 0x69, 0x6e, 0x00, 0x00, 0x00, 0x00, 
  0x03, 0x00, 0x00, 0x00, 0x84, 0x00, 0x00, 0x00, 0x3c, 0x00, 0x00, 0x00, 
  0x04, 0x00, 0x00, 0x00, 0x96, 0xff, 0xff, 0xff, 0x14, 0x00, 0x00, 0x00, 
  0x00, 0x00, 0x00, 0x08, 0x10, 0x00, 0x00, 0x00, 0x14, 0x00, 0x00, 0x00, 
  0x04, 0x00, 0x04, 0x00, 0x04, 0x00, 0x00, 0x00, 0x01, 0x00, 0x00, 0x00, 
  0x09, 0x00, 0x00, 0x00, 0x03, 0x00, 0x00, 0x00, 0x08, 0x00, 0x00, 0x00, 
  0x02, 0x00, 0x00, 0x00, 0x01, 0x00, 0x00, 0x00, 0xca, 0xff, 0xff, 0xff, 
  0x10, 0x00, 0x00, 0x00, 0x00, 0x00, 0x00, 0x08, 0x10, 0x00, 0x00, 0x00, 
  0x14, 0x00, 0x00, 0x00, 0xba, 0xff, 0xff, 0xff, 0x00, 0x00, 0x00, 0x01, 
  0x01, 0x00, 0x00, 0x00, 0x08, 0x00, 0x00, 0x00, 0x03, 0x00, 0x00, 0x00, 
  0x07, 0x00, 0x00, 0x00, 0x04, 0x00, 0x00, 0x00, 0x03, 0x00, 0x00, 0x00, 
  0x00, 0x00, 0x0e, 0x00, 0x16, 0x00, 0x00, 0x00, 0x10, 0x00, 0x0c, 0x00, 
  0x0b, 0x00, 0x04, 0x00, 0x0e, 0x00, 0x00, 0x00, 0x18, 0x00, 0x00, 0x00, 
  0x00, 0x00, 0x00, 0x08, 0x18, 0x00, 0x00, 0x00, 0x1c, 0x00, 0x00, 0x00, 
  0x00, 0x00, 0x06, 0x00, 0x08, 0x00, 0x07, 0x00, 0x06, 0x00, 0x00, 0x00, 
  0x00, 0x00, 0x00, 0x01, 0x01, 0x00, 0x00, 0x00, 0x07, 0x00, 0x00, 0x00, 
  0x03, 0x00, 0x00, 0x00, 0x00, 0x00, 0x00, 0x00, 0x06, 0x00, 0x00, 0x00, 
  0x05, 0x00, 0x00, 0x00, 0x01, 0x00, 0x00, 0x00, 0x09, 0x00, 0x00, 0x00, 
  0x01, 0x00, 0x00, 0x00, 0x00, 0x00, 0x00, 0x00, 0x0a, 0x00, 0x00, 0x00, 
  0xc4, 0x08, 0x00, 0x00, 0x4c, 0x08, 0x00, 0x00, 0xd0, 0x07, 0x00, 0x00, 
  0xbc, 0x06, 0x00, 0x00, 0xa0, 0x05, 0x00, 0x00, 0xcc, 0x03, 0x00, 0x00, 
  0xf0, 0x01, 0x00, 0x00, 0x3c, 0x01, 0x00, 0x00, 0x80, 0x00, 0x00, 0x00, 
  0x04, 0x00, 0x00, 0x00, 0x7a, 0xf7, 0xff, 0xff, 0x00, 0x00, 0x00, 0x01, 
  0x18, 0x00, 0x00, 0x00, 0x20, 0x00, 0x00, 0x00, 0x3c, 0x00, 0x00, 0x00, 
  0x0a, 0x00, 0x00, 0x00, 0x00, 0x00, 0x00, 0x09, 0x50, 0x00, 0x00, 0x00, 
  0x02, 0x00, 0x00, 0x00, 0xff, 0xff, 0xff, 0xff, 0x01, 0x00, 0x00, 0x00, 
  0x64, 0xf7, 0xff, 0xff, 0x08, 0x00, 0x00, 0x00, 0x10, 0x00, 0x00, 0x00, 
  0x01, 0x00, 0x00, 0x00, 0x02, 0x00, 0x00, 0x00, 0x00, 0x00, 0x00, 0x00, 
  0x01, 0x00, 0x00, 0x00, 0xf8, 0x29, 0x8e, 0x3c, 0x1b, 0x00, 0x00, 0x00, 
  0x53, 0x74, 0x61, 0x74, 0x65, 0x66, 0x75, 0x6c, 0x50, 0x61, 0x72, 0x74, 
  0x69, 0x74, 0x69, 0x6f, 0x6e, 0x65, 0x64, 0x43, 0x61, 0x6c, 0x6c, 0x5f, 
  0x31, 0x3a, 0x30, 0x00, 0x02, 0x00, 0x00, 0x00, 0x01, 0x00, 0x00, 0x00, 
  0x01, 0x00, 0x00, 0x00, 0xf2, 0xf7, 0xff, 0xff, 0x00, 0x00, 0x00, 0x01, 
  0x18, 0x00, 0x00, 0x00, 0x20, 0x00, 0x00, 0x00, 0x3c, 0x00, 0x00, 0x00, 
  0x09, 0x00, 0x00, 0x00, 0x00, 0x00, 0x00, 0x09, 0x90, 0x00, 0x00, 0x00, 
  0x02, 0x00, 0x00, 0x00, 0xff, 0xff, 0xff, 0xff, 0x10, 0x00, 0x00, 0x00, 
  0xdc, 0xf7, 0xff, 0xff, 0x08, 0x00, 0x00, 0x00, 0x10, 0x00, 0x00, 0x00, 
  0x01, 0x00, 0x00, 0x00, 0x80, 0xff, 0xff, 0xff, 0xff, 0xff, 0xff, 0xff, 
  0x01, 0x00, 0x00, 0x00, 0xc1, 0x99, 0x37, 0x3c, 0x58, 0x00, 0x00, 0x00, 
  0x73, 0x65, 0x71, 0x75, 0x65, 0x6e, 0x74, 0x69, 0x61, 0x6c, 0x5f, 0x31, 
  0x2f, 0x64, 0x65, 0x6e, 0x73, 0x65, 0x5f, 0x31, 0x5f, 0x32, 0x2f, 0x4d, 
  0x61, 0x74, 0x4d, 0x75, 0x6c, 0x3b, 0x73, 0x65, 0x71, 0x75, 0x65, 0x6e, 
  0x74, 0x69, 0x61, 0x6c, 0x5f, 0x31, 0x2f, 0x64, 0x65, 0x6e, 0x73, 0x65, 
  0x5f, 0x31, 0x5f, 0x32, 0x2f, 0x52, 0x65, 0x6c, 0x75, 0x3b, 0x73, 0x65, 
  0x71, 0x75, 0x65, 0x6e, 0x74, 0x69, 0x61, 0x6c, 0x5f, 0x31, 0x2f, 0x64, 
  0x65, 0x6e, 0x73, 0x65, 0x5f, 0x31, 0x5f, 0x32, 0x2f, 0x42, 0x69, 0x61, 
  0x73, 0x41, 0x64, 0x64, 0x00, 0x00, 0x00, 0x00, 0x02, 0x00, 0x00, 0x00, 
  0x01, 0x00, 0x00, 0x00, 0x10, 0x00, 0x00, 0x00, 0xaa, 0xf8, 0xff, 0xff, 
  0x00, 0x00, 0x00, 0x01, 0x18, 0x00, 0x00, 0x00, 0x20, 0x00, 0x00, 0x00, 
  0x3c, 0x00, 0x00, 0x00, 0x08, 0x00, 0x00, 0x00, 0x00, 0x00, 0x00, 0x09, 
  0x88, 0x00, 0x00, 0x00, 0x02, 0x00, 0x00, 0x00, 0xff, 0xff, 0xff, 0xff, 
  0x20, 0x00, 0x00, 0x00, 0x94, 0xf8, 0xff, 0xff, 0x08, 0x00, 0x00, 0x00, 
  0x10, 0x00, 0x00, 0x00, 0x01, 0x00, 0x00, 0x00, 0x80, 0xff, 0xff, 0xff, 
  0xff, 0xff, 0xff, 0xff, 0x01, 0x00, 0x00, 0x00, 0x0b, 0xd5, 0x3e, 0x3c, 
  0x52, 0x00, 0x00, 0x00, 0x73, 0x65, 0x71, 0x75, 0x65, 0x6e, 0x74, 0x69, 
  0x61, 0x6c, 0x5f, 0x31, 0x2f, 0x64, 0x65, 0x6e, 0x73, 0x65, 0x5f, 0x31, 
  0x2f, 0x4d, 0x61, 0x74, 0x4d, 0x75, 0x6c, 0x3b, 0x73, 0x65, 0x71, 0x75, 
  0x65, 0x6e, 0x74, 0x69, 0x61, 0x6c, 0x5f, 0x31, 0x2f, 0x64, 0x65, 0x6e, 
  0x73, 0x65, 0x5f, 0x31, 0x2f, 0x52, 0x65, 0x6c, 0x75, 0x3b, 0x73, 0x65, 
  0x71, 0x75, 0x65, 0x6e, 0x74, 0x69, 0x61, 0x6c, 0x5f, 0x31, 0x2f, 0x64, 
  0x65, 0x6e, 0x73, 0x65, 0x5f, 0x31, 0x2f, 0x42, 0x69, 0x61, 0x73, 0x41, 
  0x64, 0x64, 0x00, 0x00, 0x02, 0x00, 0x00, 0x00, 0x01, 0x00, 0x00, 0x00, 
  0x20, 0x00, 0x00, 0x00, 0xce, 0xf9, 0xff, 0xff, 0x00, 0x00, 0x00, 0x01, 
  0x14, 0x00, 0x00, 0x00, 0xa8, 0x01, 0x00, 0x00, 0x07, 0x00, 0x00, 0x00, 
  0x00, 0x00, 0x00, 0x09, 0xb4, 0x01, 0x00, 0x00, 0x34, 0xf9, 0xff, 0xff, 
  0x08, 0x00, 0x00, 0x00, 0x0c, 0x01, 0x00, 0x00, 0x20, 0x00, 0x00, 0x00, 
  0x00, 0x00, 0x00, 0x00, 0x00, 0x00, 0x00, 0x00, 0x00, 0x00, 0x00, 0x00, 
  0x00, 0x00, 0x00, 0x00, 0x00, 0x00, 0x00, 0x00, 0x00, 0x00, 0x00, 0x00, 
  0x00, 0x00, 0x00, 0x00, 0x00, 0x00, 0x00, 0x00, 0x00, 0x00, 0x00, 0x00, 
  0x00, 0x00, 0x00, 0x00, 0x00, 0x00, 0x00, 0x00, 0x00, 0x00, 0x00, 0x00, 
  0x00, 0x00, 0x00, 0x00, 0x00, 0x00, 0x00, 0x00, 0x00, 0x00, 0x00, 0x00, 
  0x00, 0x00, 0x00, 0x00, 0x00, 0x00, 0x00, 0x00, 0x00, 0x00, 0x00, 0x00, 
  0x00, 0x00, 0x00, 0x00, 0x00, 0x00, 0x00, 0x00, 0x00, 0x00, 0x00, 0x00, 
  0x00, 0x00, 0x00, 0x00, 0x00, 0x00, 0x00, 0x00, 0x00, 0x00, 0x00, 0x00, 
  0x00, 0x00, 0x00, 0x00, 0x00, 0x00, 0x00, 0x00, 0x00, 0x00, 0x00, 0x00, 
  0x00, 0x00, 0x00, 0x00, 0x00, 0x00, 0x00, 0x00, 0x00, 0x00, 0x00, 0x00, 
  0x00, 0x00, 0x00, 0x00, 0x00, 0x00, 0x00, 0x00, 0x00, 0x00, 0x00, 0x00, 
  0x00, 0x00, 0x00, 0x00, 0x00, 0x00, 0x00, 0x00, 0x00, 0x00, 0x00, 0x00, 
  0x00, 0x00, 0x00, 0x00, 0x00, 0x00, 0x00, 0x00, 0x00, 0x00, 0x00, 0x00, 
  0x00, 0x00, 0x00, 0x00, 0x00, 0x00, 0x00, 0x00, 0x00, 0x00, 0x00, 0x00, 
  0x00, 0x00, 0x00, 0x00, 0x00, 0x00, 0x00, 0x00, 0x00, 0x00, 0x00, 0x00, 
  0x00, 0x00, 0x00, 0x00, 0x00, 0x00, 0x00, 0x00, 0x00, 0x00, 0x00, 0x00, 
  0x00, 0x00, 0x00, 0x00, 0x00, 0x00, 0x00, 0x00, 0x00, 0x00, 0x00, 0x00, 
  0x00, 0x00, 0x00, 0x00, 0x00, 0x00, 0x00, 0x00, 0x00, 0x00, 0x00, 0x00, 
  0x00, 0x00, 0x00, 0x00, 0x00, 0x00, 0x00, 0x00, 0x00, 0x00, 0x00, 0x00, 
  0x00, 0x00, 0x00, 0x00, 0x00, 0x00, 0x00, 0x00, 0x00, 0x00, 0x00, 0x00, 
  0x00, 0x00, 0x00, 0x00, 0x00, 0x00, 0x00, 0x00, 0x00, 0x00, 0x00, 0x00, 
  0x00, 0x00, 0x00, 0x00, 0x00, 0x00, 0x00, 0x00, 0x20, 0x00, 0x00, 0x00, 
  0xd7, 0x22, 0x27, 0x3b, 0x60, 0xe5, 0x48, 0x3b, 0x1c, 0x93, 0x17, 0x3b, 
  0xc6, 0xba, 0x2e, 0x3b, 0x70, 0xfd, 0x2d, 0x3b, 0xfb, 0x57, 0x65, 0x3b, 
  0xa9, 0x51, 0x62, 0x3b, 0xf9, 0xf9, 0x38, 0x3b, 0xaf, 0x13, 0x4c, 0x3b, 
  0x47, 0x51, 0x5b, 0x3b, 0x7f, 0x4c, 0x35, 0x3b, 0x50, 0xbd, 0x67, 0x3b, 
  0x16, 0x63, 0x55, 0x3b, 0x21, 0x57, 0x53, 0x3b, 0x81, 0xef, 0x85, 0x3b, 
  0xa1, 0x96, 0x47, 0x3b, 0x5c, 0x46, 0x2c, 0x3b, 0x2f, 0x2f, 0x40, 0x3b, 
  0xd0, 0x34, 0x56, 0x3b, 0x45, 0xc2, 0x7a, 0x3b, 0xe0, 0xcb, 0x42, 0x3b, 
  0x9d, 0x6d, 0x5d, 0x3b, 0xb3, 0x3a, 0x05, 0x3b, 0xfc, 0xe1, 0x3e, 0x3b, 
  0xa6, 0x89, 0x57, 0x3b, 0xac, 0xa4, 0x27, 0x3b, 0xc1, 0xc8, 0x55, 0x3b, 
  0x57, 0x68, 0x82, 0x3b, 0x2f, 0x1c, 0x34, 0x3b, 0x1e, 0x9a, 0x5a, 0x3b, 
  0x57, 0x33, 0x74, 0x3b, 0x21, 0x83, 0x56, 0x3b, 0x12, 0x00, 0x00, 0x00, 
  0x74, 0x66, 0x6c, 0x2e, 0x70, 0x73, 0x65, 0x75, 0x64, 0x6f, 0x5f, 0x71, 
  0x63, 0x6f, 0x6e, 0x73, 0x74, 0x35, 0x00, 0x00, 0x02, 0x00, 0x00, 0x00, 
  0x20, 0x00, 0x00, 0x00, 0x0a, 0x00, 0x00, 0x00, 0xa6, 0xfb, 0xff, 0xff, 
  0x00, 0x00, 0x00, 0x01, 0x14, 0x00, 0x00, 0x00, 0xa4, 0x01, 0x00, 0x00, 
  0x06, 0x00, 0x00, 0x00, 0x00, 0x00, 0x00, 0x02, 0xb0, 0x01, 0x00, 0x00, 
  0x0c, 0xfb, 0xff, 0xff, 0x08, 0x00, 0x00, 0x00, 0x08, 0x01, 0x00, 0x00, 
  0x20, 0x00, 0x00, 0x00, 0x00, 0x00, 0x00, 0x00, 0x00, 0x00, 0x00, 0x00, 
  0x00, 0x00, 0x00, 0x00, 0x00, 0x00, 0x00, 0x00, 0x00, 0x00, 0x00, 0x00, 
  0x00, 0x00, 0x00, 0x00, 0x00, 0x00, 0x00, 0x00, 0x00, 0x00, 0x00, 0x00, 
  0x00, 0x00, 0x00, 0x00, 0x00, 0x00, 0x00, 0x00, 0x00, 0x00, 0x00, 0x00, 
  0x00, 0x00, 0x00, 0x00, 0x00, 0x00, 0x00, 0x00, 0x00, 0x00, 0x00, 0x00, 
  0x00, 0x00, 0x00, 0x00, 0x00, 0x00, 0x00, 0x00, 0x00, 0x00, 0x00, 0x00, 
  0x00, 0x00, 0x00, 0x00, 0x00, 0x00, 0x00, 0x00, 0x00, 0x00, 0x00, 0x00, 
  0x00, 0x00, 0x00, 0x00, 0x00, 0x00, 0x00, 0x00, 0x00, 0x00, 0x00, 0x00, 
  0x00, 0x00, 0x00, 0x00, 0x00, 0x00, 0x00, 0x00, 0x00, 0x00, 0x00, 0x00, 
  0x00, 0x00, 0x00, 0x00, 0x00, 0x00, 0x00, 0x00, 0x00, 0x00, 0x00, 0x00, 
  0x00, 0x00, 0x00, 0x00, 0x00, 0x00, 0x00, 0x00, 0x00, 0x00, 0x00, 0x00, 
  0x00, 0x00, 0x00, 0x00, 0x00, 0x00, 0x00, 0x00, 0x00, 0x00, 0x00, 0x00, 
  0x00, 0x00, 0x00, 0x00, 0x00, 0x00, 0x00, 0x00, 0x00, 0x00, 0x00, 0x00, 
  0x00, 0x00, 0x00, 0x00, 0x00, 0x00, 0x00, 0x00, 0x00, 0x00, 0x00, 0x00, 
  0x00, 0x00, 0x00, 0x00, 0x00, 0x00, 0x00, 0x00, 0x00, 0x00, 0x00, 0x00, 
  0x00, 0x00, 0x00, 0x00, 0x00, 0x00, 0x00, 0x00, 0x00, 0x00, 0x00, 0x00, 
  0x00, 0x00, 0x00, 0x00, 0x00, 0x00, 0x00, 0x00, 0x00, 0x00, 0x00, 0x00, 
  0x00, 0x00, 0x00, 0x00, 0x00, 0x00, 0x00, 0x00, 0x00, 0x00, 0x00, 0x00, 
  0x00, 0x00, 0x00, 0x00, 0x00, 0x00, 0x00, 0x00, 0x00, 0x00, 0x00, 0x00, 
  0x00, 0x00, 0x00, 0x00, 0x00, 0x00, 0x00, 0x00, 0x00, 0x00, 0x00, 0x00, 
  0x00, 0x00, 0x00, 0x00, 0x00, 0x00, 0x00, 0x00, 0x00, 0x00, 0x00, 0x00, 
  0x00, 0x00, 0x00, 0x00, 0x00, 0x00, 0x00, 0x00, 0x20, 0x00, 0x00, 0x00, 
  0x97, 0xd5, 0x69, 0x38, 0x88, 0x88, 0x8c, 0x38, 0x17, 0x10, 0x54, 0x38, 
  0x48, 0x75, 0x74, 0x38, 0x63, 0x6c, 0x73, 0x38, 0xf4, 0x6e, 0xa0, 0x38, 
  0x4a, 0x51, 0x9e, 0x38, 0xa8, 0x65, 0x81, 0x38, 0x2b, 0xc2, 0x8e, 0x38, 
  0x76, 0x6b, 0x99, 0x38, 0x1f, 0xa6, 0x7d, 0x38, 0x00, 0x1c, 0xa2, 0x38, 
  0x6f, 0x45, 0x95, 0x38, 0xe9, 0xd6, 0x93, 0x38, 0x77, 0x62, 0xbb, 0x38, 
  0x5e, 0x9e, 0x8b, 0x38, 0x17, 0x06, 0x71, 0x38, 0x71, 0x70, 0x86, 0x38, 
  0x25, 0xd8, 0x95, 0x38, 0xfe, 0x69, 0xaf, 0x38, 0x36, 0x44, 0x88, 0x38, 
  0x71, 0xe5, 0x9a, 0x38, 0x82, 0x65, 0x3a, 0x38, 0x5b, 0x87, 0x85, 0x38, 
  0x92, 0xc6, 0x96, 0x38, 0x3c, 0x8b, 0x6a, 0x38, 0x8e, 0x8c, 0x95, 0x38, 
  0xe1, 0x72, 0xb6, 0x38, 0x5e, 0xfc, 0x7b, 0x38, 0x55, 0xeb, 0x98, 0x38, 
  0x87, 0xd3, 0xaa, 0x38, 0xee, 0x0e, 0x96, 0x38, 0x12, 0x00, 0x00, 0x00, 
  0x74, 0x66, 0x6c, 0x2e, 0x70, 0x73, 0x65, 0x75, 0x64, 0x6f, 0x5f, 0x71, 
  0x63, 0x6f, 0x6e, 0x73, 0x74, 0x34, 0x00, 0x00, 0x01, 0x00, 0x00, 0x00, 
  0x20, 0x00, 0x00, 0x00, 0x76, 0xfd, 0xff, 0xff, 0x00, 0x00, 0x00, 0x01, 
  0x14, 0x00, 0x00, 0x00, 0xe8, 0x00, 0x00, 0x00, 0x05, 0x00, 0x00, 0x00, 
  0x00, 0x00, 0x00, 0x09, 0xf4, 0x00, 0x00, 0x00, 0xdc, 0xfc, 0xff, 0xff, 
  0x08, 0x00, 0x00, 0x00, 0x8c, 0x00, 0x00, 0x00, 0x10, 0x00, 0x00, 0x00, 
  0x00, 0x00, 0x00, 0x00, 0x00, 0x00, 0x00, 0x00, 0x00, 0x00, 0x00, 0x00, 
  0x00, 0x00, 0x00, 0x00, 0x00, 0x00, 0x00, 0x00, 0x00, 0x00, 0x00, 0x00, 
  0x00, 0x00, 0x00, 0x00, 0x00, 0x00, 0x00, 0x00, 0x00, 0x00, 0x00, 0x00, 
  0x00, 0x00, 0x00, 0x00, 0x00, 0x00, 0x00, 0x00, 0x00, 0x00, 0x00, 0x00, 
  0x00, 0x00, 0x00, 0x00, 0x00, 0x00, 0x00, 0x00, 0x00, 0x00, 0x00, 0x00, 
  0x00, 0x00, 0x00, 0x00, 0x00, 0x00, 0x00, 0x00, 0x00, 0x00, 0x00, 0x00, 
  0x00, 0x00, 0x00, 0x00, 0x00, 0x00, 0x00, 0x00, 0x00, 0x00, 0x00, 0x00, 
  0x00, 0x00, 0x00, 0x00, 0x00, 0x00, 0x00, 0x00, 0x00, 0x00, 0x00, 0x00, 
  0x00, 0x00, 0x00, 0x00, 0x00, 0x00, 0x00, 0x00, 0x00, 0x00, 0x00, 0x00, 
  0x00, 0x00, 0x00, 0x00, 0x00, 0x00, 0x00, 0x00, 0x00, 0x00, 0x00, 0x00, 
  0x00, 0x00, 0x00, 0x00, 0x00, 0x00, 0x00, 0x00, 0x00, 0x00, 0x00, 0x00, 
  0x10, 0x00, 0x00, 0x00, 0xa8, 0x49, 0x5b, 0x3b, 0xec, 0x65, 0x7d, 0x3b, 
  0xf5, 0xe2, 0x54, 0x3b, 0xcd, 0x01, 0x5d, 0x3b, 0x86, 0x94, 0x5f, 0x3b, 
  0x76, 0xc1, 0x5f, 0x3b, 0x1e, 0x75, 0x8c, 0x3b, 0x18, 0xf6, 0x56, 0x3b, 
  0x49, 0x89, 0x47, 0x3b, 0x92, 0xeb, 0xbe, 0x3b, 0xc1, 0xc1, 0x7b, 0x3b, 
  0xcd, 0xec, 0x2c, 0x3b, 0x97, 0x7d, 0x98, 0x3b, 0xe6, 0x54, 0x60, 0x3b, 
  0xf8, 0xc7, 0x7a, 0x3b, 0x74, 0xe6, 0x59, 0x3b, 0x12, 0x00, 0x00, 0x00, 
  0x74, 0x66, 0x6c, 0x2e, 0x70, 0x73, 0x65, 0x75, 0x64, 0x6f, 0x5f, 0x71, 
  0x63, 0x6f, 0x6e, 0x73, 0x74, 0x33, 0x00, 0x00, 0x02, 0x00, 0x00, 0x00, 
  0x10, 0x00, 0x00, 0x00, 0x20, 0x00, 0x00, 0x00, 0x8e, 0xfe, 0xff, 0xff, 
  0x00, 0x00, 0x00, 0x01, 0x14, 0x00, 0x00, 0x00, 0xe4, 0x00, 0x00, 0x00, 
  0x04, 0x00, 0x00, 0x00, 0x00, 0x00, 0x00, 0x02, 0xf0, 0x00, 0x00, 0x00, 
  0xf4, 0xfd, 0xff, 0xff, 0x08, 0x00, 0x00, 0x00, 0x88, 0x00, 0x00, 0x00, 
  0x10, 0x00, 0x00, 0x00, 0x00, 0x00, 0x00, 0x00, 0x00, 0x00, 0x00, 0x00, 
  0x00, 0x00, 0x00, 0x00, 0x00, 0x00, 0x00, 0x00, 0x00, 0x00, 0x00, 0x00, 
  0x00, 0x00, 0x00, 0x00, 0x00, 0x00, 0x00, 0x00, 0x00, 0x00, 0x00, 0x00, 
  0x00, 0x00, 0x00, 0x00, 0x00, 0x00, 0x00, 0x00, 0x00, 0x00, 0x00, 0x00, 
  0x00, 0x00, 0x00, 0x00, 0x00, 0x00, 0x00, 0x00, 0x00, 0x00, 0x00, 0x00, 
  0x00, 0x00, 0x00, 0x00, 0x00, 0x00, 0x00, 0x00, 0x00, 0x00, 0x00, 0x00, 
  0x00, 0x00, 0x00, 0x00, 0x00, 0x00, 0x00, 0x00, 0x00, 0x00, 0x00, 0x00, 
  0x00, 0x00, 0x00, 0x00, 0x00, 0x00, 0x00, 0x00, 0x00, 0x00, 0x00, 0x00, 
  0x00, 0x00, 0x00, 0x00, 0x00, 0x00, 0x00, 0x00, 0x00, 0x00, 0x00, 0x00, 
  0x00, 0x00, 0x00, 0x00, 0x00, 0x00, 0x00, 0x00, 0x00, 0x00, 0x00, 0x00, 
  0x00, 0x00, 0x00, 0x00, 0x00, 0x00, 0x00, 0x00, 0x00, 0x00, 0x00, 0x00, 
  0x10, 0x00, 0x00, 0x00, 0x28, 0x77, 0x23, 0x38, 0x86, 0xe4, 0x3c, 0x38, 
  0x9c, 0xb1, 0x1e, 0x38, 0x42, 0xbf, 0x24, 0x38, 0x4c, 0xaa, 0x26, 0x38, 
  0xcb, 0xcb, 0x26, 0x38, 0x9f, 0x67, 0x51, 0x38, 0x8a, 0x3d, 0x20, 0x38, 
  0xf2, 0xbd, 0x14, 0x38, 0xb9, 0x51, 0x8e, 0x38, 0x50, 0xab, 0x3b, 0x38, 
  0xa9, 0xe7, 0x00, 0x38, 0x3a, 0x58, 0x63, 0x38, 0xb3, 0x39, 0x27, 0x38, 
  0x1d, 0xf1, 0x3a, 0x38, 0x60, 0x6e, 0x22, 0x38, 0x12, 0x00, 0x00, 0x00, 
  0x74, 0x66, 0x6c, 0x2e, 0x70, 0x73, 0x65, 0x75, 0x64, 0x6f, 0x5f, 0x71, 
  0x63, 0x6f, 0x6e, 0x73, 0x74, 0x32, 0x00, 0x00, 0x01, 0x00, 0x00, 0x00, 
  0x10, 0x00, 0x00, 0x00, 0x9e, 0xff, 0xff, 0xff, 0x00, 0x00, 0x00, 0x01, 
  0x14, 0x00, 0x00, 0x00, 0x30, 0x00, 0x00, 0x00, 0x03, 0x00, 0x00, 0x00, 
  0x00, 0x00, 0x00, 0x09, 0x3c, 0x00, 0x00, 0x00, 0x04, 0xff, 0xff, 0xff, 
  0x08, 0x00, 0x00, 0x00, 0x10, 0x00, 0x00, 0x00, 0x01, 0x00, 0x00, 0x00, 
  0x00, 0x00, 0x00, 0x00, 0x00, 0x00, 0x00, 0x00, 0x01, 0x00, 0x00, 0x00, 
  0x2a, 0x06, 0xb2, 0x3b, 0x12, 0x00, 0x00, 0x00, 0x74, 0x66, 0x6c, 0x2e, 
  0x70, 0x73, 0x65, 0x75, 0x64, 0x6f, 0x5f, 0x71, 0x63, 0x6f, 0x6e, 0x73, 
  0x74, 0x31, 0x00, 0x00, 0x02, 0x00, 0x00, 0x00, 0x01, 0x00, 0x00, 0x00, 
  0x10, 0x00, 0x00, 0x00, 0x00, 0x00, 0x16, 0x00, 0x1c, 0x00, 0x18, 0x00, 
  0x17, 0x00, 0x10, 0x00, 0x0c, 0x00, 0x08, 0x00, 0x00, 0x00, 0x00, 0x00, 
  0x00, 0x00, 0x07, 0x00, 0x16, 0x00, 0x00, 0x00, 0x00, 0x00, 0x00, 0x01, 
  0x14, 0x00, 0x00, 0x00, 0x30, 0x00, 0x00, 0x00, 0x02, 0x00, 0x00, 0x00, 
  0x00, 0x00, 0x00, 0x02, 0x3c, 0x00, 0x00, 0x00, 0x7c, 0xff, 0xff, 0xff, 
  0x08, 0x00, 0x00, 0x00, 0x10, 0x00, 0x00, 0x00, 0x01, 0x00, 0x00, 0x00, 
  0x00, 0x00, 0x00, 0x00, 0x00, 0x00, 0x00, 0x00, 0x01, 0x00, 0x00, 0x00, 
  0xa8, 0x5a, 0x7f, 0x38, 0x11, 0x00, 0x00, 0x00, 0x74, 0x66, 0x6c, 0x2e, 
  0x70, 0x73, 0x65, 0x75, 0x64, 0x6f, 0x5f, 0x71, 0x63, 0x6f, 0x6e, 0x73, 
  0x74, 0x00, 0x00, 0x00, 0x01, 0x00, 0x00, 0x00, 0x01, 0x00, 0x00, 0x00, 
  0x00, 0x00, 0x16, 0x00, 0x20, 0x00, 0x1c, 0x00, 0x1b, 0x00, 0x14, 0x00, 
  0x10, 0x00, 0x0c, 0x00, 0x00, 0x00, 0x00, 0x00, 0x08, 0x00, 0x07, 0x00, 
  0x16, 0x00, 0x00, 0x00, 0x00, 0x00, 0x00, 0x01, 0x18, 0x00, 0x00, 0x00, 
  0x2c, 0x00, 0x00, 0x00, 0x4c, 0x00, 0x00, 0x00, 0x01, 0x00, 0x00, 0x00, 
  0x00, 0x00, 0x00, 0x09, 0x64, 0x00, 0x00, 0x00, 0x02, 0x00, 0x00, 0x00, 
  0xff, 0xff, 0xff, 0xff, 0x0a, 0x00, 0x00, 0x00, 0x0c, 0x00, 0x0c, 0x00, 
  0x00, 0x00, 0x00, 0x00, 0x08, 0x00, 0x04, 0x00, 0x0c, 0x00, 0x00, 0x00, 
  0x08, 0x00, 0x00, 0x00, 0x14, 0x00, 0x00, 0x00, 0x01, 0x00, 0x00, 0x00, 
  0xf8, 0xff, 0xff, 0xff, 0xff, 0xff, 0xff, 0xff, 0x00, 0x00, 0x00, 0x00, 
  0x01, 0x00, 0x00, 0x00, 0x94, 0x14, 0xb3, 0x3c, 0x1d, 0x00, 0x00, 0x00, 
  0x73, 0x65, 0x72, 0x76, 0x69, 0x6e, 0x67, 0x5f, 0x64, 0x65, 0x66, 0x61, 
  0x75, 0x6c, 0x74, 0x5f, 0x69, 0x6e, 0x70, 0x75, 0x74, 0x5f, 0x6c, 0x61, 
  0x79, 0x65, 0x72, 0x3a, 0x30, 0x00, 0x00, 0x00, 0x02, 0x00, 0x00, 0x00, 
  0x01, 0x00, 0x00, 0x00, 0x0a, 0x00, 0x00, 0x00, 0x01, 0x00, 0x00, 0x00, 
  0x10, 0x00, 0x00, 0x00, 0x0c, 0x00, 0x10, 0x00, 0x0f, 0x00, 0x00, 0x00, 
  0x08, 0x00, 0x04, 0x00, 0x0c, 0x00, 0x00, 0x00, 0x09, 0x00, 0x00, 0x00, 
  0x04, 0x00, 0x00, 0x00, 0x00, 0x00, 0x00, 0x09, 
};
const unsigned int rms_mpu_model_int8_tflite_len = 4328;
