const unsigned char rms_model_int8_tflite[] = {
    0x1c,
    0x00,
    0x00,
    0x00,
    0x54,
    0x46,
    0x4c,
    0x33,
    0x14,
    0x00,
    0x20,
    0x00,
    0x1c,
    0x00,
    0x18,
    0x00,
    0x14,
    0x00,
    0x10,
    0x00,
    0x0c,
    0x00,
    0x00,
    0x00,
    0x08,
    0x00,
    0x04,
    0x00,
    0x14,
    0x00,
    0x00,
    0x00,
    0x1c,
    0x00,
    0x00,
    0x00,
    0x94,
    0x00,
    0x00,
    0x00,
    0xec,
    0x00,
    0x00,
    0x00,
    0x20,
    0x06,
    0x00,
    0x00,
    0x30,
    0x06,
    0x00,
    0x00,
    0x90,
    0x10,
    0x00,
    0x00,
    0x03,
    0x00,
    0x00,
    0x00,
    0x01,
    0x00,
    0x00,
    0x00,
    0x10,
    0x00,
    0x00,
    0x00,
    0x00,
    0x00,
    0x0a,
    0x00,
    0x10,
    0x00,
    0x0c,
    0x00,
    0x08,
    0x00,
    0x04,
    0x00,
    0x0a,
    0x00,
    0x00,
    0x00,
    0x0c,
    0x00,
    0x00,
    0x00,
    0x1c,
    0x00,
    0x00,
    0x00,
    0x3c,
    0x00,
    0x00,
    0x00,
    0x0f,
    0x00,
    0x00,
    0x00,
    0x73,
    0x65,
    0x72,
    0x76,
    0x69,
    0x6e,
    0x67,
    0x5f,
    0x64,
    0x65,
    0x66,
    0x61,
    0x75,
    0x6c,
    0x74,
    0x00,
    0x01,
    0x00,
    0x00,
    0x00,
    0x04,
    0x00,
    0x00,
    0x00,
    0x94,
    0xff,
    0xff,
    0xff,
    0x09,
    0x00,
    0x00,
    0x00,
    0x04,
    0x00,
    0x00,
    0x00,
    0x08,
    0x00,
    0x00,
    0x00,
    0x6f,
    0x75,
    0x74,
    0x70,
    0x75,
    0x74,
    0x5f,
    0x30,
    0x00,
    0x00,
    0x00,
    0x00,
    0x01,
    0x00,
    0x00,
    0x00,
    0x04,
    0x00,
    0x00,
    0x00,
    0x72,
    0xfa,
    0xff,
    0xff,
    0x04,
    0x00,
    0x00,
    0x00,
    0x0b,
    0x00,
    0x00,
    0x00,
    0x69,
    0x6e,
    0x70,
    0x75,
    0x74,
    0x5f,
    0x6c,
    0x61,
    0x79,
    0x65,
    0x72,
    0x00,
    0x02,
    0x00,
    0x00,
    0x00,
    0x34,
    0x00,
    0x00,
    0x00,
    0x04,
    0x00,
    0x00,
    0x00,
    0xdc,
    0xff,
    0xff,
    0xff,
    0x0c,
    0x00,
    0x00,
    0x00,
    0x04,
    0x00,
    0x00,
    0x00,
    0x13,
    0x00,
    0x00,
    0x00,
    0x43,
    0x4f,
    0x4e,
    0x56,
    0x45,
    0x52,
    0x53,
    0x49,
    0x4f,
    0x4e,
    0x5f,
    0x4d,
    0x45,
    0x54,
    0x41,
    0x44,
    0x41,
    0x54,
    0x41,
    0x00,
    0x08,
    0x00,
    0x0c,
    0x00,
    0x08,
    0x00,
    0x04,
    0x00,
    0x08,
    0x00,
    0x00,
    0x00,
    0x0b,
    0x00,
    0x00,
    0x00,
    0x04,
    0x00,
    0x00,
    0x00,
    0x13,
    0x00,
    0x00,
    0x00,
    0x6d,
    0x69,
    0x6e,
    0x5f,
    0x72,
    0x75,
    0x6e,
    0x74,
    0x69,
    0x6d,
    0x65,
    0x5f,
    0x76,
    0x65,
    0x72,
    0x73,
    0x69,
    0x6f,
    0x6e,
    0x00,
    0x0d,
    0x00,
    0x00,
    0x00,
    0x30,
    0x05,
    0x00,
    0x00,
    0x28,
    0x05,
    0x00,
    0x00,
    0x14,
    0x05,
    0x00,
    0x00,
    0xec,
    0x04,
    0x00,
    0x00,
    0x9c,
    0x04,
    0x00,
    0x00,
    0x8c,
    0x02,
    0x00,
    0x00,
    0xfc,
    0x01,
    0x00,
    0x00,
    0xac,
    0x00,
    0x00,
    0x00,
    0xa4,
    0x00,
    0x00,
    0x00,
    0x9c,
    0x00,
    0x00,
    0x00,
    0x94,
    0x00,
    0x00,
    0x00,
    0x74,
    0x00,
    0x00,
    0x00,
    0x04,
    0x00,
    0x00,
    0x00,
    0x1e,
    0xfb,
    0xff,
    0xff,
    0x04,
    0x00,
    0x00,
    0x00,
    0x60,
    0x00,
    0x00,
    0x00,
    0x0c,
    0x00,
    0x00,
    0x00,
    0x08,
    0x00,
    0x0e,
    0x00,
    0x08,
    0x00,
    0x04,
    0x00,
    0x08,
    0x00,
    0x00,
    0x00,
    0x10,
    0x00,
    0x00,
    0x00,
    0x28,
    0x00,
    0x00,
    0x00,
    0x00,
    0x00,
    0x06,
    0x00,
    0x08,
    0x00,
    0x04,
    0x00,
    0x06,
    0x00,
    0x00,
    0x00,
    0x04,
    0x00,
    0x00,
    0x00,
    0x01,
    0x00,
    0x00,
    0x00,
    0xeb,
    0x03,
    0x00,
    0x00,
    0x0c,
    0x00,
    0x18,
    0x00,
    0x14,
    0x00,
    0x10,
    0x00,
    0x0c,
    0x00,
    0x04,
    0x00,
    0x0c,
    0x00,
    0x00,
    0x00,
    0x63,
    0x4e,
    0xeb,
    0xb7,
    0x5a,
    0x23,
    0x4d,
    0x43,
    0x02,
    0x00,
    0x00,
    0x00,
    0x02,
    0x00,
    0x00,
    0x00,
    0x04,
    0x00,
    0x00,
    0x00,
    0x06,
    0x00,
    0x00,
    0x00,
    0x32,
    0x2e,
    0x32,
    0x30,
    0x2e,
    0x30,
    0x00,
    0x00,
    0x8a,
    0xfb,
    0xff,
    0xff,
    0x04,
    0x00,
    0x00,
    0x00,
    0x10,
    0x00,
    0x00,
    0x00,
    0x31,
    0x2e,
    0x31,
    0x34,
    0x2e,
    0x30,
    0x00,
    0x00,
    0x00,
    0x00,
    0x00,
    0x00,
    0x00,
    0x00,
    0x00,
    0x00,
    0x14,
    0xfb,
    0xff,
    0xff,
    0x18,
    0xfb,
    0xff,
    0xff,
    0x1c,
    0xfb,
    0xff,
    0xff,
    0xb2,
    0xfb,
    0xff,
    0xff,
    0x04,
    0x00,
    0x00,
    0x00,
    0x40,
    0x01,
    0x00,
    0x00,
    0xd5,
    0xd1,
    0xc7,
    0x7f,
    0xe4,
    0x48,
    0x97,
    0xab,
    0x61,
    0xf2,
    0xb8,
    0xf9,
    0xae,
    0x3e,
    0xf5,
    0x64,
    0xac,
    0x43,
    0xcd,
    0x81,
    0x34,
    0x68,
    0xfa,
    0x13,
    0x19,
    0xd2,
    0x7f,
    0x44,
    0x06,
    0xd5,
    0xbd,
    0xe2,
    0x13,
    0x20,
    0x5c,
    0xe5,
    0xe5,
    0x07,
    0x7f,
    0xdb,
    0x81,
    0xdf,
    0xd7,
    0x36,
    0x60,
    0xf8,
    0xe4,
    0x50,
    0xe2,
    0x0e,
    0xe3,
    0xdb,
    0x62,
    0x95,
    0xbc,
    0xc9,
    0x35,
    0xae,
    0x81,
    0x3b,
    0x7f,
    0xd5,
    0xe9,
    0x1d,
    0x09,
    0xdf,
    0xb3,
    0x2d,
    0x12,
    0x75,
    0xcf,
    0xe8,
    0x46,
    0xcc,
    0x81,
    0x55,
    0x4d,
    0xf0,
    0x2e,
    0x3e,
    0xfe,
    0x07,
    0x3c,
    0x67,
    0x43,
    0x5e,
    0xc4,
    0x38,
    0x3e,
    0x7f,
    0xa4,
    0x13,
    0x9d,
    0x47,
    0x1f,
    0xdc,
    0x12,
    0xc9,
    0xc8,
    0x7f,
    0x7d,
    0xe9,
    0xf1,
    0x2c,
    0xe0,
    0x38,
    0x5a,
    0x5b,
    0xda,
    0x7f,
    0x57,
    0xd6,
    0x45,
    0xfd,
    0xb7,
    0xfa,
    0xa5,
    0x01,
    0xd0,
    0x7f,
    0x8f,
    0x04,
    0xb0,
    0xbd,
    0x81,
    0x81,
    0xbd,
    0x7f,
    0x36,
    0xa8,
    0x5c,
    0xe2,
    0x9c,
    0xc5,
    0xdb,
    0xe4,
    0x7a,
    0x7f,
    0xdf,
    0x5d,
    0x27,
    0x82,
    0xcb,
    0xbe,
    0xd3,
    0xc6,
    0x7f,
    0x8b,
    0xa1,
    0x81,
    0xf9,
    0x52,
    0x55,
    0x35,
    0xe1,
    0x81,
    0xf7,
    0xdc,
    0xb5,
    0xab,
    0x04,
    0x81,
    0x18,
    0x37,
    0xee,
    0xad,
    0xc5,
    0xf3,
    0x5e,
    0x0d,
    0x65,
    0x43,
    0x11,
    0xa9,
    0x0d,
    0x49,
    0xbf,
    0xb4,
    0x4c,
    0x7f,
    0x4c,
    0x81,
    0x49,
    0x8c,
    0xd7,
    0x05,
    0xee,
    0xdd,
    0x37,
    0x27,
    0xdf,
    0xc2,
    0x2f,
    0xb0,
    0x35,
    0xbd,
    0x45,
    0xb5,
    0x71,
    0x7f,
    0x01,
    0xe1,
    0xbe,
    0x7f,
    0x53,
    0x87,
    0x36,
    0xf3,
    0x31,
    0xec,
    0xc3,
    0x93,
    0xe6,
    0xd5,
    0x17,
    0x7f,
    0xb5,
    0x5d,
    0x4e,
    0x3f,
    0x9b,
    0xcf,
    0x81,
    0xdd,
    0x9d,
    0x1d,
    0x31,
    0x5a,
    0x2f,
    0xa3,
    0xe2,
    0x48,
    0xe2,
    0x2f,
    0xfb,
    0xd4,
    0xe2,
    0x45,
    0xdf,
    0x7f,
    0x81,
    0xfe,
    0x02,
    0xad,
    0x5b,
    0xcc,
    0x2e,
    0xb1,
    0x05,
    0x56,
    0xbf,
    0xc1,
    0x02,
    0xd2,
    0x29,
    0xd3,
    0xb6,
    0xe8,
    0xe8,
    0x81,
    0x77,
    0x4b,
    0x47,
    0xce,
    0x3f,
    0x7f,
    0x7c,
    0xe6,
    0xa2,
    0x9b,
    0x4a,
    0x0a,
    0x47,
    0x54,
    0xfc,
    0xde,
    0xaa,
    0x02,
    0x3d,
    0x81,
    0x0d,
    0x48,
    0xa6,
    0xcb,
    0x99,
    0xb1,
    0x49,
    0xd9,
    0x1c,
    0x7f,
    0xdc,
    0x4e,
    0x5f,
    0x20,
    0x0e,
    0xc0,
    0x00,
    0x81,
    0x12,
    0x58,
    0xfd,
    0x6e,
    0xdc,
    0xd9,
    0x3a,
    0xd5,
    0x68,
    0xd6,
    0x7f,
    0xa0,
    0xcc,
    0x98,
    0x3f,
    0xa9,
    0x64,
    0x3b,
    0x9f,
    0x7d,
    0x9d,
    0x7f,
    0xfe,
    0xfc,
    0xff,
    0xff,
    0x04,
    0x00,
    0x00,
    0x00,
    0x80,
    0x00,
    0x00,
    0x00,
    0x9d,
    0x04,
    0x00,
    0x00,
    0x18,
    0xf9,
    0xff,
    0xff,
    0x82,
    0x00,
    0x00,
    0x00,
    0xa6,
    0xfa,
    0xff,
    0xff,
    0x77,
    0xfd,
    0xff,
    0xff,
    0x26,
    0xfb,
    0xff,
    0xff,
    0xfe,
    0xf8,
    0xff,
    0xff,
    0x03,
    0x03,
    0x00,
    0x00,
    0x9e,
    0xfc,
    0xff,
    0xff,
    0xd5,
    0x04,
    0x00,
    0x00,
    0xbf,
    0x04,
    0x00,
    0x00,
    0xd7,
    0x04,
    0x00,
    0x00,
    0x19,
    0xf9,
    0xff,
    0xff,
    0x68,
    0x0b,
    0x00,
    0x00,
    0x56,
    0x03,
    0x00,
    0x00,
    0x30,
    0x08,
    0x00,
    0x00,
    0x25,
    0xfc,
    0xff,
    0xff,
    0xfe,
    0x03,
    0x00,
    0x00,
    0x5a,
    0xf5,
    0xff,
    0xff,
    0x1e,
    0x00,
    0x00,
    0x00,
    0xb3,
    0xfb,
    0xff,
    0xff,
    0xc0,
    0xf9,
    0xff,
    0xff,
    0x55,
    0x04,
    0x00,
    0x00,
    0xe6,
    0x03,
    0x00,
    0x00,
    0xa3,
    0x06,
    0x00,
    0x00,
    0x91,
    0xff,
    0xff,
    0xff,
    0xd6,
    0xf3,
    0xff,
    0xff,
    0xdb,
    0x01,
    0x00,
    0x00,
    0xa8,
    0xfc,
    0xff,
    0xff,
    0xa6,
    0x00,
    0x00,
    0x00,
    0x0e,
    0x00,
    0x00,
    0x00,
    0x7a,
    0x07,
    0x00,
    0x00,
    0x8a,
    0xfd,
    0xff,
    0xff,
    0x04,
    0x00,
    0x00,
    0x00,
    0x00,
    0x02,
    0x00,
    0x00,
    0x47,
    0xea,
    0x52,
    0xd8,
    0x06,
    0xb9,
    0x71,
    0x5d,
    0xf5,
    0x7f,
    0xf9,
    0xe6,
    0x49,
    0xbb,
    0x59,
    0xcf,
    0xf0,
    0x98,
    0x43,
    0x33,
    0x56,
    0xd0,
    0x49,
    0x7d,
    0x44,
    0x4b,
    0xca,
    0x06,
    0x58,
    0x2c,
    0x2c,
    0xf2,
    0x53,
    0x81,
    0xda,
    0xe0,
    0xc8,
    0xef,
    0xdd,
    0x31,
    0x6a,
    0x14,
    0x52,
    0x47,
    0xc2,
    0xdf,
    0xd2,
    0x0a,
    0x3f,
    0xf2,
    0x00,
    0x28,
    0xd8,
    0xf3,
    0xae,
    0x54,
    0x16,
    0xae,
    0x25,
    0x42,
    0xe6,
    0x74,
    0x36,
    0xdc,
    0x2d,
    0x37,
    0x42,
    0x0e,
    0x56,
    0x2c,
    0x29,
    0xdf,
    0xb8,
    0xcd,
    0x4c,
    0xcb,
    0xf2,
    0xb9,
    0x26,
    0x5f,
    0x11,
    0x39,
    0x43,
    0xd1,
    0xfe,
    0x2a,
    0xd7,
    0xc7,
    0x23,
    0xec,
    0xf3,
    0x7f,
    0x33,
    0xde,
    0x20,
    0xd1,
    0x03,
    0x28,
    0x38,
    0xcf,
    0x2b,
    0xd1,
    0xc8,
    0x01,
    0xea,
    0xf9,
    0x14,
    0x2a,
    0x0d,
    0xa9,
    0x02,
    0xf6,
    0x0c,
    0xbd,
    0xd4,
    0xaa,
    0xe4,
    0xe9,
    0xcd,
    0x40,
    0xc1,
    0x23,
    0xb2,
    0x33,
    0x02,
    0xfd,
    0x81,
    0x29,
    0xa8,
    0x16,
    0x01,
    0x5f,
    0x15,
    0x17,
    0xdd,
    0xeb,
    0x00,
    0xa8,
    0xe2,
    0x81,
    0x55,
    0xda,
    0x01,
    0xee,
    0xda,
    0x86,
    0xf9,
    0xe2,
    0xfa,
    0x29,
    0xed,
    0xfc,
    0x3f,
    0x39,
    0x5a,
    0x56,
    0x44,
    0xa9,
    0x0a,
    0x25,
    0x48,
    0xa2,
    0x44,
    0x0b,
    0x02,
    0xaf,
    0x12,
    0xc3,
    0x14,
    0xec,
    0xa0,
    0x7f,
    0x30,
    0xf3,
    0x10,
    0xd3,
    0x1a,
    0x0e,
    0x69,
    0x31,
    0xfd,
    0xd9,
    0x48,
    0x9a,
    0x2a,
    0x2a,
    0x83,
    0xa2,
    0x05,
    0xef,
    0x45,
    0x37,
    0xfc,
    0x79,
    0xb5,
    0xf1,
    0x7f,
    0xfe,
    0x48,
    0xa8,
    0xa8,
    0xdc,
    0x6a,
    0x37,
    0xe1,
    0x73,
    0x2f,
    0x12,
    0xfa,
    0xb2,
    0x8a,
    0x60,
    0x9c,
    0xe7,
    0x3b,
    0xb6,
    0x0f,
    0x42,
    0xdf,
    0x5b,
    0x92,
    0x9e,
    0x7a,
    0x9a,
    0xce,
    0x9e,
    0xef,
    0xf2,
    0xb1,
    0xcd,
    0xcc,
    0xc3,
    0x07,
    0xf5,
    0xc0,
    0x99,
    0xcd,
    0x8d,
    0x81,
    0x18,
    0xf8,
    0xfe,
    0x26,
    0xfb,
    0xe5,
    0x39,
    0x15,
    0x23,
    0xcb,
    0xf5,
    0x47,
    0xfd,
    0x21,
    0x0f,
    0xf4,
    0x23,
    0x16,
    0xbc,
    0x81,
    0xae,
    0xf2,
    0xcd,
    0x68,
    0xf7,
    0xfe,
    0x00,
    0x99,
    0xb6,
    0x22,
    0xd9,
    0xeb,
    0xbd,
    0xd8,
    0x2d,
    0x2e,
    0x03,
    0xdd,
    0xfb,
    0x44,
    0x03,
    0x12,
    0x21,
    0xe2,
    0x57,
    0x30,
    0x0a,
    0x22,
    0xe8,
    0xdd,
    0x48,
    0x03,
    0x54,
    0x46,
    0xd1,
    0x05,
    0x0a,
    0xc4,
    0x5c,
    0x60,
    0x10,
    0x2f,
    0x3f,
    0xf2,
    0xe2,
    0xd7,
    0x7f,
    0x2c,
    0x4a,
    0x4d,
    0x59,
    0x56,
    0x74,
    0x6d,
    0xb5,
    0xd4,
    0x0c,
    0x62,
    0x0f,
    0x26,
    0x5f,
    0x81,
    0x35,
    0xd9,
    0xd6,
    0x33,
    0x9d,
    0xe4,
    0x74,
    0xba,
    0x90,
    0x1a,
    0x1f,
    0x2d,
    0x35,
    0x4e,
    0x13,
    0xd7,
    0x49,
    0xb6,
    0x27,
    0x2e,
    0x2d,
    0xec,
    0xc2,
    0x08,
    0xeb,
    0x5d,
    0x6c,
    0x78,
    0x9a,
    0x09,
    0xf8,
    0xdf,
    0x85,
    0x48,
    0x0f,
    0xc0,
    0xed,
    0x5c,
    0x62,
    0x5b,
    0xd1,
    0x49,
    0x66,
    0xe0,
    0x1a,
    0x4c,
    0x00,
    0xfa,
    0x52,
    0x46,
    0xcd,
    0xdd,
    0xed,
    0x26,
    0x01,
    0x03,
    0x81,
    0xdb,
    0x40,
    0xd6,
    0xd6,
    0x2f,
    0xca,
    0x98,
    0xe1,
    0x17,
    0xf7,
    0x19,
    0xca,
    0xed,
    0x97,
    0xca,
    0xc6,
    0xac,
    0x33,
    0x8f,
    0xe5,
    0x24,
    0xe2,
    0xf8,
    0x42,
    0x51,
    0x95,
    0x02,
    0xd7,
    0x00,
    0x2e,
    0xd9,
    0x04,
    0xe9,
    0x2b,
    0x81,
    0xf9,
    0x5c,
    0xb4,
    0xbe,
    0x3f,
    0xf9,
    0x1c,
    0xe4,
    0xdd,
    0xae,
    0xb3,
    0xc3,
    0x4f,
    0xb4,
    0xf3,
    0xd1,
    0xe8,
    0x19,
    0x19,
    0x98,
    0xb5,
    0x62,
    0x81,
    0xd1,
    0xd5,
    0x1b,
    0xcb,
    0x11,
    0xdf,
    0xe6,
    0x3d,
    0x11,
    0x11,
    0x23,
    0x55,
    0xef,
    0x09,
    0x13,
    0xc4,
    0x0a,
    0xfc,
    0xd6,
    0xd4,
    0x81,
    0xe1,
    0xbf,
    0x1a,
    0x2f,
    0x43,
    0x38,
    0xdd,
    0xe8,
    0x0b,
    0xe2,
    0xcc,
    0x92,
    0x2d,
    0x1c,
    0x21,
    0xb1,
    0xe8,
    0xcb,
    0xf8,
    0xcc,
    0xd3,
    0x3d,
    0x21,
    0x1b,
    0x2d,
    0xe0,
    0x39,
    0x2f,
    0x58,
    0xee,
    0xf8,
    0x23,
    0xd6,
    0x1e,
    0xc2,
    0xa1,
    0x25,
    0x7f,
    0xdc,
    0xb0,
    0x2c,
    0xab,
    0x3c,
    0x6e,
    0x25,
    0xcc,
    0xdf,
    0xb0,
    0xeb,
    0xee,
    0x2f,
    0x8b,
    0xf0,
    0x3c,
    0xfb,
    0x96,
    0xff,
    0xff,
    0xff,
    0x04,
    0x00,
    0x00,
    0x00,
    0x40,
    0x00,
    0x00,
    0x00,
    0x55,
    0xf3,
    0xff,
    0xff,
    0xb4,
    0xff,
    0xff,
    0xff,
    0x6f,
    0x01,
    0x00,
    0x00,
    0xe6,
    0xfe,
    0xff,
    0xff,
    0x25,
    0x02,
    0x00,
    0x00,
    0x31,
    0x04,
    0x00,
    0x00,
    0x90,
    0x0b,
    0x00,
    0x00,
    0x20,
    0xf9,
    0xff,
    0xff,
    0xda,
    0x02,
    0x00,
    0x00,
    0x6f,
    0xfd,
    0xff,
    0xff,
    0xc1,
    0x03,
    0x00,
    0x00,
    0xf7,
    0xf8,
    0xff,
    0xff,
    0x49,
    0xfe,
    0xff,
    0xff,
    0xd8,
    0xff,
    0xff,
    0xff,
    0x59,
    0xff,
    0xff,
    0xff,
    0x72,
    0x06,
    0x00,
    0x00,
    0xe2,
    0xff,
    0xff,
    0xff,
    0x04,
    0x00,
    0x00,
    0x00,
    0x10,
    0x00,
    0x00,
    0x00,
    0x0e,
    0x2d,
    0x91,
    0x77,
    0xcf,
    0x05,
    0x81,
    0x9b,
    0x9a,
    0x60,
    0xef,
    0x1c,
    0x7c,
    0xd0,
    0x8c,
    0xe5,
    0x00,
    0x00,
    0x06,
    0x00,
    0x08,
    0x00,
    0x04,
    0x00,
    0x06,
    0x00,
    0x00,
    0x00,
    0x04,
    0x00,
    0x00,
    0x00,
    0x04,
    0x00,
    0x00,
    0x00,
    0x13,
    0xff,
    0xff,
    0xff,
    0x84,
    0xff,
    0xff,
    0xff,
    0x88,
    0xff,
    0xff,
    0xff,
    0x0f,
    0x00,
    0x00,
    0x00,
    0x4d,
    0x4c,
    0x49,
    0x52,
    0x20,
    0x43,
    0x6f,
    0x6e,
    0x76,
    0x65,
    0x72,
    0x74,
    0x65,
    0x64,
    0x2e,
    0x00,
    0x01,
    0x00,
    0x00,
    0x00,
    0x14,
    0x00,
    0x00,
    0x00,
    0x00,
    0x00,
    0x0e,
    0x00,
    0x18,
    0x00,
    0x14,
    0x00,
    0x10,
    0x00,
    0x0c,
    0x00,
    0x08,
    0x00,
    0x04,
    0x00,
    0x0e,
    0x00,
    0x00,
    0x00,
    0x14,
    0x00,
    0x00,
    0x00,
    0x1c,
    0x00,
    0x00,
    0x00,
    0xdc,
    0x00,
    0x00,
    0x00,
    0xe0,
    0x00,
    0x00,
    0x00,
    0xe4,
    0x00,
    0x00,
    0x00,
    0x04,
    0x00,
    0x00,
    0x00,
    0x6d,
    0x61,
    0x69,
    0x6e,
    0x00,
    0x00,
    0x00,
    0x00,
    0x03,
    0x00,
    0x00,
    0x00,
    0x84,
    0x00,
    0x00,
    0x00,
    0x3c,
    0x00,
    0x00,
    0x00,
    0x04,
    0x00,
    0x00,
    0x00,
    0x96,
    0xff,
    0xff,
    0xff,
    0x14,
    0x00,
    0x00,
    0x00,
    0x00,
    0x00,
    0x00,
    0x08,
    0x10,
    0x00,
    0x00,
    0x00,
    0x14,
    0x00,
    0x00,
    0x00,
    0x04,
    0x00,
    0x04,
    0x00,
    0x04,
    0x00,
    0x00,
    0x00,
    0x01,
    0x00,
    0x00,
    0x00,
    0x09,
    0x00,
    0x00,
    0x00,
    0x03,
    0x00,
    0x00,
    0x00,
    0x08,
    0x00,
    0x00,
    0x00,
    0x02,
    0x00,
    0x00,
    0x00,
    0x01,
    0x00,
    0x00,
    0x00,
    0xca,
    0xff,
    0xff,
    0xff,
    0x10,
    0x00,
    0x00,
    0x00,
    0x00,
    0x00,
    0x00,
    0x08,
    0x10,
    0x00,
    0x00,
    0x00,
    0x14,
    0x00,
    0x00,
    0x00,
    0xba,
    0xff,
    0xff,
    0xff,
    0x00,
    0x00,
    0x00,
    0x01,
    0x01,
    0x00,
    0x00,
    0x00,
    0x08,
    0x00,
    0x00,
    0x00,
    0x03,
    0x00,
    0x00,
    0x00,
    0x07,
    0x00,
    0x00,
    0x00,
    0x04,
    0x00,
    0x00,
    0x00,
    0x03,
    0x00,
    0x00,
    0x00,
    0x00,
    0x00,
    0x0e,
    0x00,
    0x16,
    0x00,
    0x00,
    0x00,
    0x10,
    0x00,
    0x0c,
    0x00,
    0x0b,
    0x00,
    0x04,
    0x00,
    0x0e,
    0x00,
    0x00,
    0x00,
    0x18,
    0x00,
    0x00,
    0x00,
    0x00,
    0x00,
    0x00,
    0x08,
    0x18,
    0x00,
    0x00,
    0x00,
    0x1c,
    0x00,
    0x00,
    0x00,
    0x00,
    0x00,
    0x06,
    0x00,
    0x08,
    0x00,
    0x07,
    0x00,
    0x06,
    0x00,
    0x00,
    0x00,
    0x00,
    0x00,
    0x00,
    0x01,
    0x01,
    0x00,
    0x00,
    0x00,
    0x07,
    0x00,
    0x00,
    0x00,
    0x03,
    0x00,
    0x00,
    0x00,
    0x00,
    0x00,
    0x00,
    0x00,
    0x06,
    0x00,
    0x00,
    0x00,
    0x05,
    0x00,
    0x00,
    0x00,
    0x01,
    0x00,
    0x00,
    0x00,
    0x09,
    0x00,
    0x00,
    0x00,
    0x01,
    0x00,
    0x00,
    0x00,
    0x00,
    0x00,
    0x00,
    0x00,
    0x0a,
    0x00,
    0x00,
    0x00,
    0xc4,
    0x08,
    0x00,
    0x00,
    0x4c,
    0x08,
    0x00,
    0x00,
    0xd0,
    0x07,
    0x00,
    0x00,
    0xbc,
    0x06,
    0x00,
    0x00,
    0xa0,
    0x05,
    0x00,
    0x00,
    0xcc,
    0x03,
    0x00,
    0x00,
    0xf0,
    0x01,
    0x00,
    0x00,
    0x3c,
    0x01,
    0x00,
    0x00,
    0x80,
    0x00,
    0x00,
    0x00,
    0x04,
    0x00,
    0x00,
    0x00,
    0x7a,
    0xf7,
    0xff,
    0xff,
    0x00,
    0x00,
    0x00,
    0x01,
    0x18,
    0x00,
    0x00,
    0x00,
    0x20,
    0x00,
    0x00,
    0x00,
    0x3c,
    0x00,
    0x00,
    0x00,
    0x0a,
    0x00,
    0x00,
    0x00,
    0x00,
    0x00,
    0x00,
    0x09,
    0x50,
    0x00,
    0x00,
    0x00,
    0x02,
    0x00,
    0x00,
    0x00,
    0xff,
    0xff,
    0xff,
    0xff,
    0x01,
    0x00,
    0x00,
    0x00,
    0x64,
    0xf7,
    0xff,
    0xff,
    0x08,
    0x00,
    0x00,
    0x00,
    0x10,
    0x00,
    0x00,
    0x00,
    0x01,
    0x00,
    0x00,
    0x00,
    0x00,
    0x00,
    0x00,
    0x00,
    0x00,
    0x00,
    0x00,
    0x00,
    0x01,
    0x00,
    0x00,
    0x00,
    0x98,
    0x73,
    0x93,
    0x3c,
    0x1b,
    0x00,
    0x00,
    0x00,
    0x53,
    0x74,
    0x61,
    0x74,
    0x65,
    0x66,
    0x75,
    0x6c,
    0x50,
    0x61,
    0x72,
    0x74,
    0x69,
    0x74,
    0x69,
    0x6f,
    0x6e,
    0x65,
    0x64,
    0x43,
    0x61,
    0x6c,
    0x6c,
    0x5f,
    0x31,
    0x3a,
    0x30,
    0x00,
    0x02,
    0x00,
    0x00,
    0x00,
    0x01,
    0x00,
    0x00,
    0x00,
    0x01,
    0x00,
    0x00,
    0x00,
    0xf2,
    0xf7,
    0xff,
    0xff,
    0x00,
    0x00,
    0x00,
    0x01,
    0x18,
    0x00,
    0x00,
    0x00,
    0x20,
    0x00,
    0x00,
    0x00,
    0x3c,
    0x00,
    0x00,
    0x00,
    0x09,
    0x00,
    0x00,
    0x00,
    0x00,
    0x00,
    0x00,
    0x09,
    0x90,
    0x00,
    0x00,
    0x00,
    0x02,
    0x00,
    0x00,
    0x00,
    0xff,
    0xff,
    0xff,
    0xff,
    0x10,
    0x00,
    0x00,
    0x00,
    0xdc,
    0xf7,
    0xff,
    0xff,
    0x08,
    0x00,
    0x00,
    0x00,
    0x10,
    0x00,
    0x00,
    0x00,
    0x01,
    0x00,
    0x00,
    0x00,
    0x80,
    0xff,
    0xff,
    0xff,
    0xff,
    0xff,
    0xff,
    0xff,
    0x01,
    0x00,
    0x00,
    0x00,
    0x6c,
    0x33,
    0xa9,
    0x3c,
    0x58,
    0x00,
    0x00,
    0x00,
    0x73,
    0x65,
    0x71,
    0x75,
    0x65,
    0x6e,
    0x74,
    0x69,
    0x61,
    0x6c,
    0x5f,
    0x31,
    0x2f,
    0x64,
    0x65,
    0x6e,
    0x73,
    0x65,
    0x5f,
    0x31,
    0x5f,
    0x32,
    0x2f,
    0x4d,
    0x61,
    0x74,
    0x4d,
    0x75,
    0x6c,
    0x3b,
    0x73,
    0x65,
    0x71,
    0x75,
    0x65,
    0x6e,
    0x74,
    0x69,
    0x61,
    0x6c,
    0x5f,
    0x31,
    0x2f,
    0x64,
    0x65,
    0x6e,
    0x73,
    0x65,
    0x5f,
    0x31,
    0x5f,
    0x32,
    0x2f,
    0x52,
    0x65,
    0x6c,
    0x75,
    0x3b,
    0x73,
    0x65,
    0x71,
    0x75,
    0x65,
    0x6e,
    0x74,
    0x69,
    0x61,
    0x6c,
    0x5f,
    0x31,
    0x2f,
    0x64,
    0x65,
    0x6e,
    0x73,
    0x65,
    0x5f,
    0x31,
    0x5f,
    0x32,
    0x2f,
    0x42,
    0x69,
    0x61,
    0x73,
    0x41,
    0x64,
    0x64,
    0x00,
    0x00,
    0x00,
    0x00,
    0x02,
    0x00,
    0x00,
    0x00,
    0x01,
    0x00,
    0x00,
    0x00,
    0x10,
    0x00,
    0x00,
    0x00,
    0xaa,
    0xf8,
    0xff,
    0xff,
    0x00,
    0x00,
    0x00,
    0x01,
    0x18,
    0x00,
    0x00,
    0x00,
    0x20,
    0x00,
    0x00,
    0x00,
    0x3c,
    0x00,
    0x00,
    0x00,
    0x08,
    0x00,
    0x00,
    0x00,
    0x00,
    0x00,
    0x00,
    0x09,
    0x88,
    0x00,
    0x00,
    0x00,
    0x02,
    0x00,
    0x00,
    0x00,
    0xff,
    0xff,
    0xff,
    0xff,
    0x20,
    0x00,
    0x00,
    0x00,
    0x94,
    0xf8,
    0xff,
    0xff,
    0x08,
    0x00,
    0x00,
    0x00,
    0x10,
    0x00,
    0x00,
    0x00,
    0x01,
    0x00,
    0x00,
    0x00,
    0x80,
    0xff,
    0xff,
    0xff,
    0xff,
    0xff,
    0xff,
    0xff,
    0x01,
    0x00,
    0x00,
    0x00,
    0xeb,
    0x80,
    0x63,
    0x3c,
    0x52,
    0x00,
    0x00,
    0x00,
    0x73,
    0x65,
    0x71,
    0x75,
    0x65,
    0x6e,
    0x74,
    0x69,
    0x61,
    0x6c,
    0x5f,
    0x31,
    0x2f,
    0x64,
    0x65,
    0x6e,
    0x73,
    0x65,
    0x5f,
    0x31,
    0x2f,
    0x4d,
    0x61,
    0x74,
    0x4d,
    0x75,
    0x6c,
    0x3b,
    0x73,
    0x65,
    0x71,
    0x75,
    0x65,
    0x6e,
    0x74,
    0x69,
    0x61,
    0x6c,
    0x5f,
    0x31,
    0x2f,
    0x64,
    0x65,
    0x6e,
    0x73,
    0x65,
    0x5f,
    0x31,
    0x2f,
    0x52,
    0x65,
    0x6c,
    0x75,
    0x3b,
    0x73,
    0x65,
    0x71,
    0x75,
    0x65,
    0x6e,
    0x74,
    0x69,
    0x61,
    0x6c,
    0x5f,
    0x31,
    0x2f,
    0x64,
    0x65,
    0x6e,
    0x73,
    0x65,
    0x5f,
    0x31,
    0x2f,
    0x42,
    0x69,
    0x61,
    0x73,
    0x41,
    0x64,
    0x64,
    0x00,
    0x00,
    0x02,
    0x00,
    0x00,
    0x00,
    0x01,
    0x00,
    0x00,
    0x00,
    0x20,
    0x00,
    0x00,
    0x00,
    0xce,
    0xf9,
    0xff,
    0xff,
    0x00,
    0x00,
    0x00,
    0x01,
    0x14,
    0x00,
    0x00,
    0x00,
    0xa8,
    0x01,
    0x00,
    0x00,
    0x07,
    0x00,
    0x00,
    0x00,
    0x00,
    0x00,
    0x00,
    0x09,
    0xb4,
    0x01,
    0x00,
    0x00,
    0x34,
    0xf9,
    0xff,
    0xff,
    0x08,
    0x00,
    0x00,
    0x00,
    0x0c,
    0x01,
    0x00,
    0x00,
    0x20,
    0x00,
    0x00,
    0x00,
    0x00,
    0x00,
    0x00,
    0x00,
    0x00,
    0x00,
    0x00,
    0x00,
    0x00,
    0x00,
    0x00,
    0x00,
    0x00,
    0x00,
    0x00,
    0x00,
    0x00,
    0x00,
    0x00,
    0x00,
    0x00,
    0x00,
    0x00,
    0x00,
    0x00,
    0x00,
    0x00,
    0x00,
    0x00,
    0x00,
    0x00,
    0x00,
    0x00,
    0x00,
    0x00,
    0x00,
    0x00,
    0x00,
    0x00,
    0x00,
    0x00,
    0x00,
    0x00,
    0x00,
    0x00,
    0x00,
    0x00,
    0x00,
    0x00,
    0x00,
    0x00,
    0x00,
    0x00,
    0x00,
    0x00,
    0x00,
    0x00,
    0x00,
    0x00,
    0x00,
    0x00,
    0x00,
    0x00,
    0x00,
    0x00,
    0x00,
    0x00,
    0x00,
    0x00,
    0x00,
    0x00,
    0x00,
    0x00,
    0x00,
    0x00,
    0x00,
    0x00,
    0x00,
    0x00,
    0x00,
    0x00,
    0x00,
    0x00,
    0x00,
    0x00,
    0x00,
    0x00,
    0x00,
    0x00,
    0x00,
    0x00,
    0x00,
    0x00,
    0x00,
    0x00,
    0x00,
    0x00,
    0x00,
    0x00,
    0x00,
    0x00,
    0x00,
    0x00,
    0x00,
    0x00,
    0x00,
    0x00,
    0x00,
    0x00,
    0x00,
    0x00,
    0x00,
    0x00,
    0x00,
    0x00,
    0x00,
    0x00,
    0x00,
    0x00,
    0x00,
    0x00,
    0x00,
    0x00,
    0x00,
    0x00,
    0x00,
    0x00,
    0x00,
    0x00,
    0x00,
    0x00,
    0x00,
    0x00,
    0x00,
    0x00,
    0x00,
    0x00,
    0x00,
    0x00,
    0x00,
    0x00,
    0x00,
    0x00,
    0x00,
    0x00,
    0x00,
    0x00,
    0x00,
    0x00,
    0x00,
    0x00,
    0x00,
    0x00,
    0x00,
    0x00,
    0x00,
    0x00,
    0x00,
    0x00,
    0x00,
    0x00,
    0x00,
    0x00,
    0x00,
    0x00,
    0x00,
    0x00,
    0x00,
    0x00,
    0x00,
    0x00,
    0x00,
    0x00,
    0x00,
    0x00,
    0x00,
    0x00,
    0x00,
    0x00,
    0x00,
    0x00,
    0x00,
    0x00,
    0x00,
    0x00,
    0x00,
    0x00,
    0x00,
    0x00,
    0x00,
    0x00,
    0x00,
    0x00,
    0x00,
    0x00,
    0x00,
    0x00,
    0x00,
    0x00,
    0x00,
    0x00,
    0x00,
    0x00,
    0x00,
    0x00,
    0x00,
    0x00,
    0x00,
    0x00,
    0x00,
    0x00,
    0x00,
    0x00,
    0x00,
    0x00,
    0x00,
    0x00,
    0x00,
    0x00,
    0x00,
    0x00,
    0x00,
    0x00,
    0x00,
    0x00,
    0x00,
    0x00,
    0x00,
    0x00,
    0x00,
    0x00,
    0x00,
    0x00,
    0x00,
    0x00,
    0x00,
    0x00,
    0x00,
    0x00,
    0x00,
    0x00,
    0x00,
    0x00,
    0x00,
    0x00,
    0x00,
    0x00,
    0x00,
    0x00,
    0x00,
    0x00,
    0x00,
    0x00,
    0x00,
    0x00,
    0x00,
    0x00,
    0x00,
    0x00,
    0x00,
    0x20,
    0x00,
    0x00,
    0x00,
    0x0b,
    0x14,
    0x5d,
    0x3b,
    0x27,
    0x99,
    0x1e,
    0x3b,
    0xcd,
    0x23,
    0x31,
    0x3b,
    0x73,
    0xd1,
    0x7b,
    0x3b,
    0x42,
    0x13,
    0x8c,
    0x3b,
    0x3a,
    0xce,
    0x4a,
    0x3b,
    0x2d,
    0xd1,
    0x3a,
    0x3b,
    0x96,
    0xd6,
    0x64,
    0x3b,
    0xf3,
    0x8d,
    0x4f,
    0x3b,
    0xe0,
    0xcd,
    0x74,
    0x3b,
    0x16,
    0x30,
    0x43,
    0x3b,
    0xfc,
    0xe7,
    0x5a,
    0x3b,
    0x5c,
    0xc2,
    0x2f,
    0x3b,
    0x78,
    0x93,
    0x3a,
    0x3b,
    0x51,
    0x52,
    0x2d,
    0x3b,
    0x42,
    0x78,
    0x4d,
    0x3b,
    0x5e,
    0xb0,
    0x5a,
    0x3b,
    0x2f,
    0x6c,
    0x68,
    0x3b,
    0x0f,
    0xed,
    0x19,
    0x3b,
    0x78,
    0xec,
    0x5f,
    0x3b,
    0xb6,
    0xbb,
    0x5b,
    0x3b,
    0x0b,
    0x81,
    0x2b,
    0x3b,
    0x5e,
    0x2f,
    0x69,
    0x3b,
    0x1d,
    0x07,
    0x78,
    0x3b,
    0x25,
    0xe7,
    0x64,
    0x3b,
    0x9b,
    0xe9,
    0x6d,
    0x3b,
    0x4f,
    0x51,
    0x4d,
    0x3b,
    0xc1,
    0xd1,
    0x85,
    0x3b,
    0xbe,
    0xe9,
    0x5d,
    0x3b,
    0xf7,
    0x94,
    0x78,
    0x3b,
    0x7e,
    0x81,
    0x49,
    0x3b,
    0x38,
    0xed,
    0x40,
    0x3b,
    0x12,
    0x00,
    0x00,
    0x00,
    0x74,
    0x66,
    0x6c,
    0x2e,
    0x70,
    0x73,
    0x65,
    0x75,
    0x64,
    0x6f,
    0x5f,
    0x71,
    0x63,
    0x6f,
    0x6e,
    0x73,
    0x74,
    0x35,
    0x00,
    0x00,
    0x02,
    0x00,
    0x00,
    0x00,
    0x20,
    0x00,
    0x00,
    0x00,
    0x0a,
    0x00,
    0x00,
    0x00,
    0xa6,
    0xfb,
    0xff,
    0xff,
    0x00,
    0x00,
    0x00,
    0x01,
    0x14,
    0x00,
    0x00,
    0x00,
    0xa4,
    0x01,
    0x00,
    0x00,
    0x06,
    0x00,
    0x00,
    0x00,
    0x00,
    0x00,
    0x00,
    0x02,
    0xb0,
    0x01,
    0x00,
    0x00,
    0x0c,
    0xfb,
    0xff,
    0xff,
    0x08,
    0x00,
    0x00,
    0x00,
    0x08,
    0x01,
    0x00,
    0x00,
    0x20,
    0x00,
    0x00,
    0x00,
    0x00,
    0x00,
    0x00,
    0x00,
    0x00,
    0x00,
    0x00,
    0x00,
    0x00,
    0x00,
    0x00,
    0x00,
    0x00,
    0x00,
    0x00,
    0x00,
    0x00,
    0x00,
    0x00,
    0x00,
    0x00,
    0x00,
    0x00,
    0x00,
    0x00,
    0x00,
    0x00,
    0x00,
    0x00,
    0x00,
    0x00,
    0x00,
    0x00,
    0x00,
    0x00,
    0x00,
    0x00,
    0x00,
    0x00,
    0x00,
    0x00,
    0x00,
    0x00,
    0x00,
    0x00,
    0x00,
    0x00,
    0x00,
    0x00,
    0x00,
    0x00,
    0x00,
    0x00,
    0x00,
    0x00,
    0x00,
    0x00,
    0x00,
    0x00,
    0x00,
    0x00,
    0x00,
    0x00,
    0x00,
    0x00,
    0x00,
    0x00,
    0x00,
    0x00,
    0x00,
    0x00,
    0x00,
    0x00,
    0x00,
    0x00,
    0x00,
    0x00,
    0x00,
    0x00,
    0x00,
    0x00,
    0x00,
    0x00,
    0x00,
    0x00,
    0x00,
    0x00,
    0x00,
    0x00,
    0x00,
    0x00,
    0x00,
    0x00,
    0x00,
    0x00,
    0x00,
    0x00,
    0x00,
    0x00,
    0x00,
    0x00,
    0x00,
    0x00,
    0x00,
    0x00,
    0x00,
    0x00,
    0x00,
    0x00,
    0x00,
    0x00,
    0x00,
    0x00,
    0x00,
    0x00,
    0x00,
    0x00,
    0x00,
    0x00,
    0x00,
    0x00,
    0x00,
    0x00,
    0x00,
    0x00,
    0x00,
    0x00,
    0x00,
    0x00,
    0x00,
    0x00,
    0x00,
    0x00,
    0x00,
    0x00,
    0x00,
    0x00,
    0x00,
    0x00,
    0x00,
    0x00,
    0x00,
    0x00,
    0x00,
    0x00,
    0x00,
    0x00,
    0x00,
    0x00,
    0x00,
    0x00,
    0x00,
    0x00,
    0x00,
    0x00,
    0x00,
    0x00,
    0x00,
    0x00,
    0x00,
    0x00,
    0x00,
    0x00,
    0x00,
    0x00,
    0x00,
    0x00,
    0x00,
    0x00,
    0x00,
    0x00,
    0x00,
    0x00,
    0x00,
    0x00,
    0x00,
    0x00,
    0x00,
    0x00,
    0x00,
    0x00,
    0x00,
    0x00,
    0x00,
    0x00,
    0x00,
    0x00,
    0x00,
    0x00,
    0x00,
    0x00,
    0x00,
    0x00,
    0x00,
    0x00,
    0x00,
    0x00,
    0x00,
    0x00,
    0x00,
    0x00,
    0x00,
    0x00,
    0x00,
    0x00,
    0x00,
    0x00,
    0x00,
    0x00,
    0x00,
    0x00,
    0x00,
    0x00,
    0x00,
    0x00,
    0x00,
    0x00,
    0x00,
    0x00,
    0x00,
    0x00,
    0x00,
    0x00,
    0x00,
    0x00,
    0x00,
    0x00,
    0x00,
    0x00,
    0x00,
    0x00,
    0x00,
    0x00,
    0x00,
    0x00,
    0x00,
    0x00,
    0x00,
    0x00,
    0x00,
    0x00,
    0x00,
    0x00,
    0x00,
    0x00,
    0x00,
    0x00,
    0x00,
    0x00,
    0x00,
    0x00,
    0x00,
    0x00,
    0x00,
    0x00,
    0x00,
    0x20,
    0x00,
    0x00,
    0x00,
    0x24,
    0xad,
    0x97,
    0x38,
    0xe3,
    0x9e,
    0x59,
    0x38,
    0x01,
    0x10,
    0x73,
    0x38,
    0x26,
    0xc4,
    0xac,
    0x38,
    0x4c,
    0x34,
    0xc0,
    0x38,
    0xcf,
    0x23,
    0x8b,
    0x38,
    0xab,
    0x2b,
    0x80,
    0x38,
    0x0f,
    0x00,
    0x9d,
    0x38,
    0xe3,
    0x65,
    0x8e,
    0x38,
    0x3f,
    0xf4,
    0xa7,
    0x38,
    0xdd,
    0xe9,
    0x85,
    0x38,
    0xa5,
    0x2f,
    0x96,
    0x38,
    0x07,
    0x2b,
    0x71,
    0x38,
    0x55,
    0x01,
    0x80,
    0x38,
    0xc0,
    0xd2,
    0x6d,
    0x38,
    0xbc,
    0xf7,
    0x8c,
    0x38,
    0x7d,
    0x09,
    0x96,
    0x38,
    0x9a,
    0x75,
    0x9f,
    0x38,
    0xab,
    0x35,
    0x53,
    0x38,
    0xe6,
    0xa0,
    0x99,
    0x38,
    0xe8,
    0xc0,
    0x96,
    0x38,
    0x53,
    0x54,
    0x6b,
    0x38,
    0x83,
    0xfb,
    0x9f,
    0x38,
    0x6c,
    0x2a,
    0xaa,
    0x38,
    0x6c,
    0x0b,
    0x9d,
    0x38,
    0xd3,
    0x39,
    0xa3,
    0x38,
    0x03,
    0xdd,
    0x8c,
    0x38,
    0xcb,
    0x9e,
    0xb7,
    0x38,
    0xc1,
    0x3f,
    0x98,
    0x38,
    0xbe,
    0x8b,
    0xaa,
    0x38,
    0x87,
    0x3f,
    0x8a,
    0x38,
    0xb8,
    0x5c,
    0x84,
    0x38,
    0x12,
    0x00,
    0x00,
    0x00,
    0x74,
    0x66,
    0x6c,
    0x2e,
    0x70,
    0x73,
    0x65,
    0x75,
    0x64,
    0x6f,
    0x5f,
    0x71,
    0x63,
    0x6f,
    0x6e,
    0x73,
    0x74,
    0x34,
    0x00,
    0x00,
    0x01,
    0x00,
    0x00,
    0x00,
    0x20,
    0x00,
    0x00,
    0x00,
    0x76,
    0xfd,
    0xff,
    0xff,
    0x00,
    0x00,
    0x00,
    0x01,
    0x14,
    0x00,
    0x00,
    0x00,
    0xe8,
    0x00,
    0x00,
    0x00,
    0x05,
    0x00,
    0x00,
    0x00,
    0x00,
    0x00,
    0x00,
    0x09,
    0xf4,
    0x00,
    0x00,
    0x00,
    0xdc,
    0xfc,
    0xff,
    0xff,
    0x08,
    0x00,
    0x00,
    0x00,
    0x8c,
    0x00,
    0x00,
    0x00,
    0x10,
    0x00,
    0x00,
    0x00,
    0x00,
    0x00,
    0x00,
    0x00,
    0x00,
    0x00,
    0x00,
    0x00,
    0x00,
    0x00,
    0x00,
    0x00,
    0x00,
    0x00,
    0x00,
    0x00,
    0x00,
    0x00,
    0x00,
    0x00,
    0x00,
    0x00,
    0x00,
    0x00,
    0x00,
    0x00,
    0x00,
    0x00,
    0x00,
    0x00,
    0x00,
    0x00,
    0x00,
    0x00,
    0x00,
    0x00,
    0x00,
    0x00,
    0x00,
    0x00,
    0x00,
    0x00,
    0x00,
    0x00,
    0x00,
    0x00,
    0x00,
    0x00,
    0x00,
    0x00,
    0x00,
    0x00,
    0x00,
    0x00,
    0x00,
    0x00,
    0x00,
    0x00,
    0x00,
    0x00,
    0x00,
    0x00,
    0x00,
    0x00,
    0x00,
    0x00,
    0x00,
    0x00,
    0x00,
    0x00,
    0x00,
    0x00,
    0x00,
    0x00,
    0x00,
    0x00,
    0x00,
    0x00,
    0x00,
    0x00,
    0x00,
    0x00,
    0x00,
    0x00,
    0x00,
    0x00,
    0x00,
    0x00,
    0x00,
    0x00,
    0x00,
    0x00,
    0x00,
    0x00,
    0x00,
    0x00,
    0x00,
    0x00,
    0x00,
    0x00,
    0x00,
    0x00,
    0x00,
    0x00,
    0x00,
    0x00,
    0x00,
    0x00,
    0x00,
    0x00,
    0x00,
    0x00,
    0x00,
    0x00,
    0x00,
    0x00,
    0x00,
    0x00,
    0x00,
    0x00,
    0x00,
    0x00,
    0x00,
    0x00,
    0x00,
    0x00,
    0x00,
    0x00,
    0x00,
    0x00,
    0x00,
    0x00,
    0x10,
    0x00,
    0x00,
    0x00,
    0xec,
    0xd2,
    0x58,
    0x3b,
    0xeb,
    0x69,
    0x6a,
    0x3b,
    0x65,
    0x38,
    0x85,
    0x3b,
    0xc7,
    0x8b,
    0xb0,
    0x3b,
    0xbd,
    0x54,
    0x82,
    0x3b,
    0xd6,
    0xbe,
    0x4c,
    0x3b,
    0x7e,
    0xaa,
    0x35,
    0x3b,
    0x18,
    0xae,
    0xa9,
    0x3b,
    0xab,
    0x6d,
    0x95,
    0x3b,
    0x51,
    0x94,
    0x5e,
    0x3b,
    0xe3,
    0x28,
    0x71,
    0x3b,
    0xd9,
    0xf5,
    0x7d,
    0x3b,
    0x54,
    0xbb,
    0xc3,
    0x3b,
    0x11,
    0x28,
    0x9a,
    0x3b,
    0xbf,
    0x54,
    0xa4,
    0x3b,
    0x20,
    0x2e,
    0x6e,
    0x3b,
    0x12,
    0x00,
    0x00,
    0x00,
    0x74,
    0x66,
    0x6c,
    0x2e,
    0x70,
    0x73,
    0x65,
    0x75,
    0x64,
    0x6f,
    0x5f,
    0x71,
    0x63,
    0x6f,
    0x6e,
    0x73,
    0x74,
    0x33,
    0x00,
    0x00,
    0x02,
    0x00,
    0x00,
    0x00,
    0x10,
    0x00,
    0x00,
    0x00,
    0x20,
    0x00,
    0x00,
    0x00,
    0x8e,
    0xfe,
    0xff,
    0xff,
    0x00,
    0x00,
    0x00,
    0x01,
    0x14,
    0x00,
    0x00,
    0x00,
    0xe4,
    0x00,
    0x00,
    0x00,
    0x04,
    0x00,
    0x00,
    0x00,
    0x00,
    0x00,
    0x00,
    0x02,
    0xf0,
    0x00,
    0x00,
    0x00,
    0xf4,
    0xfd,
    0xff,
    0xff,
    0x08,
    0x00,
    0x00,
    0x00,
    0x88,
    0x00,
    0x00,
    0x00,
    0x10,
    0x00,
    0x00,
    0x00,
    0x00,
    0x00,
    0x00,
    0x00,
    0x00,
    0x00,
    0x00,
    0x00,
    0x00,
    0x00,
    0x00,
    0x00,
    0x00,
    0x00,
    0x00,
    0x00,
    0x00,
    0x00,
    0x00,
    0x00,
    0x00,
    0x00,
    0x00,
    0x00,
    0x00,
    0x00,
    0x00,
    0x00,
    0x00,
    0x00,
    0x00,
    0x00,
    0x00,
    0x00,
    0x00,
    0x00,
    0x00,
    0x00,
    0x00,
    0x00,
    0x00,
    0x00,
    0x00,
    0x00,
    0x00,
    0x00,
    0x00,
    0x00,
    0x00,
    0x00,
    0x00,
    0x00,
    0x00,
    0x00,
    0x00,
    0x00,
    0x00,
    0x00,
    0x00,
    0x00,
    0x00,
    0x00,
    0x00,
    0x00,
    0x00,
    0x00,
    0x00,
    0x00,
    0x00,
    0x00,
    0x00,
    0x00,
    0x00,
    0x00,
    0x00,
    0x00,
    0x00,
    0x00,
    0x00,
    0x00,
    0x00,
    0x00,
    0x00,
    0x00,
    0x00,
    0x00,
    0x00,
    0x00,
    0x00,
    0x00,
    0x00,
    0x00,
    0x00,
    0x00,
    0x00,
    0x00,
    0x00,
    0x00,
    0x00,
    0x00,
    0x00,
    0x00,
    0x00,
    0x00,
    0x00,
    0x00,
    0x00,
    0x00,
    0x00,
    0x00,
    0x00,
    0x00,
    0x00,
    0x00,
    0x00,
    0x00,
    0x00,
    0x00,
    0x00,
    0x00,
    0x00,
    0x00,
    0x00,
    0x00,
    0x00,
    0x00,
    0x00,
    0x00,
    0x10,
    0x00,
    0x00,
    0x00,
    0x38,
    0xb0,
    0x40,
    0x38,
    0xf8,
    0x51,
    0x50,
    0x38,
    0x30,
    0xc8,
    0x6c,
    0x38,
    0xd9,
    0xe4,
    0x9c,
    0x38,
    0x8b,
    0xa5,
    0x67,
    0x38,
    0x53,
    0xf4,
    0x35,
    0x38,
    0xaa,
    0x71,
    0x21,
    0x38,
    0xd2,
    0xca,
    0x96,
    0x38,
    0x7f,
    0xcb,
    0x84,
    0x38,
    0x9a,
    0xcd,
    0x45,
    0x38,
    0xb3,
    0x50,
    0x56,
    0x38,
    0xe3,
    0xb0,
    0x61,
    0x38,
    0xad,
    0xf1,
    0xad,
    0x38,
    0x29,
    0xff,
    0x88,
    0x38,
    0xe7,
    0x09,
    0x92,
    0x38,
    0xd8,
    0xaa,
    0x53,
    0x38,
    0x12,
    0x00,
    0x00,
    0x00,
    0x74,
    0x66,
    0x6c,
    0x2e,
    0x70,
    0x73,
    0x65,
    0x75,
    0x64,
    0x6f,
    0x5f,
    0x71,
    0x63,
    0x6f,
    0x6e,
    0x73,
    0x74,
    0x32,
    0x00,
    0x00,
    0x01,
    0x00,
    0x00,
    0x00,
    0x10,
    0x00,
    0x00,
    0x00,
    0x9e,
    0xff,
    0xff,
    0xff,
    0x00,
    0x00,
    0x00,
    0x01,
    0x14,
    0x00,
    0x00,
    0x00,
    0x30,
    0x00,
    0x00,
    0x00,
    0x03,
    0x00,
    0x00,
    0x00,
    0x00,
    0x00,
    0x00,
    0x09,
    0x3c,
    0x00,
    0x00,
    0x00,
    0x04,
    0xff,
    0xff,
    0xff,
    0x08,
    0x00,
    0x00,
    0x00,
    0x10,
    0x00,
    0x00,
    0x00,
    0x01,
    0x00,
    0x00,
    0x00,
    0x00,
    0x00,
    0x00,
    0x00,
    0x00,
    0x00,
    0x00,
    0x00,
    0x01,
    0x00,
    0x00,
    0x00,
    0xe6,
    0xbc,
    0xa6,
    0x3b,
    0x12,
    0x00,
    0x00,
    0x00,
    0x74,
    0x66,
    0x6c,
    0x2e,
    0x70,
    0x73,
    0x65,
    0x75,
    0x64,
    0x6f,
    0x5f,
    0x71,
    0x63,
    0x6f,
    0x6e,
    0x73,
    0x74,
    0x31,
    0x00,
    0x00,
    0x02,
    0x00,
    0x00,
    0x00,
    0x01,
    0x00,
    0x00,
    0x00,
    0x10,
    0x00,
    0x00,
    0x00,
    0x00,
    0x00,
    0x16,
    0x00,
    0x1c,
    0x00,
    0x18,
    0x00,
    0x17,
    0x00,
    0x10,
    0x00,
    0x0c,
    0x00,
    0x08,
    0x00,
    0x00,
    0x00,
    0x00,
    0x00,
    0x00,
    0x00,
    0x07,
    0x00,
    0x16,
    0x00,
    0x00,
    0x00,
    0x00,
    0x00,
    0x00,
    0x01,
    0x14,
    0x00,
    0x00,
    0x00,
    0x30,
    0x00,
    0x00,
    0x00,
    0x02,
    0x00,
    0x00,
    0x00,
    0x00,
    0x00,
    0x00,
    0x02,
    0x3c,
    0x00,
    0x00,
    0x00,
    0x7c,
    0xff,
    0xff,
    0xff,
    0x08,
    0x00,
    0x00,
    0x00,
    0x10,
    0x00,
    0x00,
    0x00,
    0x01,
    0x00,
    0x00,
    0x00,
    0x00,
    0x00,
    0x00,
    0x00,
    0x00,
    0x00,
    0x00,
    0x00,
    0x01,
    0x00,
    0x00,
    0x00,
    0x64,
    0x68,
    0xdc,
    0x38,
    0x11,
    0x00,
    0x00,
    0x00,
    0x74,
    0x66,
    0x6c,
    0x2e,
    0x70,
    0x73,
    0x65,
    0x75,
    0x64,
    0x6f,
    0x5f,
    0x71,
    0x63,
    0x6f,
    0x6e,
    0x73,
    0x74,
    0x00,
    0x00,
    0x00,
    0x01,
    0x00,
    0x00,
    0x00,
    0x01,
    0x00,
    0x00,
    0x00,
    0x00,
    0x00,
    0x16,
    0x00,
    0x20,
    0x00,
    0x1c,
    0x00,
    0x1b,
    0x00,
    0x14,
    0x00,
    0x10,
    0x00,
    0x0c,
    0x00,
    0x00,
    0x00,
    0x00,
    0x00,
    0x08,
    0x00,
    0x07,
    0x00,
    0x16,
    0x00,
    0x00,
    0x00,
    0x00,
    0x00,
    0x00,
    0x01,
    0x18,
    0x00,
    0x00,
    0x00,
    0x2c,
    0x00,
    0x00,
    0x00,
    0x4c,
    0x00,
    0x00,
    0x00,
    0x01,
    0x00,
    0x00,
    0x00,
    0x00,
    0x00,
    0x00,
    0x09,
    0x64,
    0x00,
    0x00,
    0x00,
    0x02,
    0x00,
    0x00,
    0x00,
    0xff,
    0xff,
    0xff,
    0xff,
    0x0a,
    0x00,
    0x00,
    0x00,
    0x0c,
    0x00,
    0x0c,
    0x00,
    0x00,
    0x00,
    0x00,
    0x00,
    0x08,
    0x00,
    0x04,
    0x00,
    0x0c,
    0x00,
    0x00,
    0x00,
    0x08,
    0x00,
    0x00,
    0x00,
    0x14,
    0x00,
    0x00,
    0x00,
    0x01,
    0x00,
    0x00,
    0x00,
    0x02,
    0x00,
    0x00,
    0x00,
    0x00,
    0x00,
    0x00,
    0x00,
    0x00,
    0x00,
    0x00,
    0x00,
    0x01,
    0x00,
    0x00,
    0x00,
    0xa0,
    0xa2,
    0xaf,
    0x3c,
    0x1d,
    0x00,
    0x00,
    0x00,
    0x73,
    0x65,
    0x72,
    0x76,
    0x69,
    0x6e,
    0x67,
    0x5f,
    0x64,
    0x65,
    0x66,
    0x61,
    0x75,
    0x6c,
    0x74,
    0x5f,
    0x69,
    0x6e,
    0x70,
    0x75,
    0x74,
    0x5f,
    0x6c,
    0x61,
    0x79,
    0x65,
    0x72,
    0x3a,
    0x30,
    0x00,
    0x00,
    0x00,
    0x02,
    0x00,
    0x00,
    0x00,
    0x01,
    0x00,
    0x00,
    0x00,
    0x0a,
    0x00,
    0x00,
    0x00,
    0x01,
    0x00,
    0x00,
    0x00,
    0x10,
    0x00,
    0x00,
    0x00,
    0x0c,
    0x00,
    0x10,
    0x00,
    0x0f,
    0x00,
    0x00,
    0x00,
    0x08,
    0x00,
    0x04,
    0x00,
    0x0c,
    0x00,
    0x00,
    0x00,
    0x09,
    0x00,
    0x00,
    0x00,
    0x04,
    0x00,
    0x00,
    0x00,
    0x00,
    0x00,
    0x00,
    0x09,
};
const unsigned int rms_model_int8_tflite_len = 4328;
